<unk>	0
▁t	-0
he	-1
▁a	-2
in	-3
▁the	-4
er	-5
nd	-6
▁s	-7
▁w	-8
ed	-9
on	-10
re	-11
▁b	-12
it	-13
▁o	-14
at	-15
▁f	-16
an	-17
is	-18
▁and	-19
or	-20
ar	-21
en	-22
▁c	-23
al	-24
▁to	-25
▁T	-26
as	-27
es	-28
▁p	-29
▁in	-30
▁h	-31
ou	-32
▁of	-33
ing	-34
▁d	-35
▁S	-36
▁m	-37
om	-38
ic	-39
▁l	-40
il	-41
▁The	-42
ion	-43
le	-44
▁A	-45
ay	-46
▁was	-47
▁n	-48
▁C	-49
am	-50
id	-51
ad	-52
▁M	-53
im	-54
ent	-55
▁H	-56
el	-57
ot	-58
▁B	-59
▁1	-60
▁he	-61
et	-62
▁g	-63
ir	-64
st	-65
ol	-66
▁I	-67
▁th	-68
ac	-69
ig	-70
ro	-71
ut	-72
▁re	-73
ver	-74
▁e	-75
▁L	-76
ur	-77
▁(	-78
▁P	-79
ec	-80
▁on	-81
ow	-82
ith	-83
un	-84
▁"	-85
▁R	-86
▁for	-87
ly	-88
▁with	-89
▁st	-90
ter	-91
ri	-92
▁O	-93
us	-94
ve	-95
▁2	-96
▁D	-97
ation	-98
▁it	-99
▁F	-100
▁is	-101
ch	-102
▁19	-103
▁W	-104
▁as	-105
ap	-106
▁pl	-107
▁sa	-108
ce	-109
▁al	-110
end	-111
▁be	-112
her	-113
▁N	-114
▁E	-115
▁G	-116
▁his	-117
ul	-118
▁r	-119
▁He	-120
and	-121
▁J	-122
ag	-123
ted	-124
th	-125
um	-126
all	-127
ers	-128
▁20	-129
▁that	-130
oo	-131
ist	-132
▁an	-133
em	-134
▁wh	-135
ld	-136
▁play	-137
▁at	-138
▁y	-139
rom	-140
ke	-141
up	-142
op	-143
ain	-144
▁They	-145
▁by	-146
os	-147
ct	-148
est	-149
▁On	-150
ew	-151
ill	-152
▁her	-153
▁from	-154
ab	-155
ear	-156
oc	-157
ked	-158
ard	-159
te	-160
▁K	-161
▁day	-162
iv	-163
▁In	-164
igh	-165
▁said	-166
if	-167
ere	-168
▁not	-169
▁Tim	-170
▁had	-171
▁She	-172
ore	-173
ound	-174
ia	-175
▁sh	-176
▁com	-177
▁con	-178
▁were	-179
ts	-180
▁U	-181
ue	-182
og	-183
ian	-184
ud	-185
ame	-186
▁v	-187
ies	-188
▁are	-189
res	-190
ate	-191
se	-192
very	-193
ity	-194
ber	-195
xt	-196
▁you	-197
▁they	-198
gh	-199
ack	-200
▁up	-201
▁se	-202
▁k	-203
uc	-204
app	-205
ily	-206
ong	-207
ould	-208
ip	-209
of	-210
▁big	-211
art	-212
ry	-213
ime	-214
ub	-215
ish	-216
▁or	-217
▁de	-218
ide	-219
ell	-220
ant	-221
ave	-222
▁pro	-223
▁St	-224
ess	-225
▁It	-226
▁200	-227
itt	-228
▁ch	-229
▁but	-230
od	-231
ich	-232
av	-233
riend	-234
▁happ	-235
qu	-236
ment	-237
▁sp	-238
▁friend	-239
ast	-240
ive	-241
ov	-242
▁Ch	-243
ak	-244
ust	-245
ge	-246
our	-247
ome	-248
ary	-249
ort	-250
ated	-251
▁she	-252
▁V	-253
ial	-254
▁time	-255
ks	-256
▁ex	-257
mer	-258
ough	-259
▁j	-260
ine	-261
▁all	-262
ug	-263
hed	-264
▁tr	-265
text	-266
▁ar	-267
ep	-268
."	-269
▁cl	-270
▁there	-271
oun	-272
▁<	-273
▁very	-274
▁<|	-275
|>	-276
endof	-277
endoftext	-278
hen	-279
ther	-280
ree	-281
▁One	-282
▁their	-283
ight	-284
ord	-285
amed	-286
ef	-287
ind	-288
▁so	-289
ost	-290
are	-291
▁saw	-292
ake	-293
ittle	-294
so	-295
▁happy	-296
ood	-297
oy	-298
▁un	-299
ice	-300
00	-301
▁li	-302
ra	-303
ark	-304
▁mom	-305
▁sm	-306
▁Lily	-307
▁little	-308
▁Y	-309
▁Tom	-310
ure	-311
19	-312
▁named	-313
own	-314
ous	-315
▁man	-316
ird	-317
),	-318
▁also	-319
▁have	-320
ond	-321
▁–	-322
way	-323
▁|	-324
ical	-325
ions	-326
ach	-327
ass	-328
▁Un	-329
▁which	-330
pp	-331
▁can	-332
▁sc	-333
age	-334
ater	-335
ect	-336
▁out	-337
ie	-338
tern	-339
▁too	-340
▁gr	-341
▁ro	-342
enc	-343
▁bec	-344
▁wan	-345
▁le	-346
▁wor	-347
▁comp	-348
fter	-349
ign	-350
▁go	-351
one	-352
▁us	-353
▁hel	-354
▁201	-355
out	-356
▁him	-357
▁Th	-358
oll	-359
▁wanted	-360
▁ag	-361
ran	-362
ire	-363
▁friends	-364
irst	-365
▁kn	-366
ade	-367
ff	-368
▁ab	-369
!"	-370
▁went	-371
▁Al	-372
▁help	-373
▁other	-374
to	-375
▁Sp	-376
▁who	-377
ory	-378
ace	-379
ited	-380
iz	-381
und	-382
cl	-383
ric	-384
wn	-385
man	-386
▁bird	-387
▁199	-388
vers	-389
ool	-390
per	-391
ang	-392
ty	-393
ob	-394
ings	-395
▁did	-396
▁loo	-397
get	-398
▁has	-399
ile	-400
▁new	-401
▁them	-402
▁18	-403
orn	-404
rit	-405
ally	-406
▁Once	-407
▁pr	-408
▁its	-409
▁ne	-410
▁upon	-411
▁one	-412
▁An	-413
▁first	-414
▁3	-415
▁fun	-416
land	-417
pl	-418
▁do	-419
ations	-420
▁ad	-421
▁found	-422
ite	-423
▁tw	-424
▁te	-425
▁played	-426
ans	-427
▁Ma	-428
▁Ar	-429
▁would	-430
my	-431
▁cont	-432
▁this	-433
▁could	-434
▁res	-435
ational	-436
uch	-437
▁ser	-438
amp	-439
▁me	-440
meric	-441
▁toy	-442
▁toget	-443
▁together	-444
old	-445
▁cat	-446
ild	-447
▁app	-448
eop	-449
▁As	-450
ens	-451
irl	-452
ence	-453
▁we	-454
ib	-455
ition	-456
▁part	-457
ath	-458
ren	-459
chool	-460
ail	-461
▁back	-462
eople	-463
ouse	-464
ates	-465
als	-466
urn	-467
iss	-468
▁br	-469
ase	-470
act	-471
▁Americ	-472
oved	-473
▁ac	-474
ors	-475
ction	-476
ove	-477
▁car	-478
ress	-479
fer	-480
ick	-481
ru	-482
▁when	-483
▁year	-484
▁pre	-485
▁into	-486
▁star	-487
▁(19	-488
▁dog	-489
▁again	-490
).	-491
pt	-492
oth	-493
▁two	-494
able	-495
ences	-496
▁ball	-497
oin	-498
▁Le	-499
▁198	-500
hn	-501
▁per	-502
ember	-503
▁But	-504
▁New	-505
▁after	-506
clud	-507
we	-508
ult	-509
les	-510
orm	-511
▁made	-512
▁la	-513
▁rec	-514
▁girl	-515
ilm	-516
▁fl	-517
ubl	-518
▁-	-519
▁over	-520
side	-521
▁Mar	-522
ons	-523
▁im	-524
?"	-525
▁en	-526
▁Com	-527
under	-528
▁bo	-529
uring	-530
ball	-531
▁4	-532
eth	-533
use	-534
▁more	-535
▁then	-536
▁Ben	-537
here	-538
ased	-539
▁about	-540
▁dis	-541
ied	-542
ely	-543
▁boy	-544
▁some	-545
▁ev	-546
▁includ	-547
▁off	-548
▁been	-549
port	-550
ents	-551
▁American	-552
ward	-553
io	-554
ance	-555
reat	-556
ought	-557
▁fe	-558
▁dec	-559
ished	-560
▁En	-561
▁Max	-562
▁197	-563
▁sad	-564
▁under	-565
▁like	-566
▁||	-567
▁Ref	-568
▁tree	-569
ook	-570
▁bl	-571
▁Sue	-572
ried	-573
▁small	-574
ton	-575
▁Ex	-576
oot	-577
ivers	-578
▁bet	-579
elt	-580
ful	-581
▁Jo	-582
ount	-583
hip	-584
gan	-585
hy	-586
ious	-587
▁Re	-588
▁co	-589
ived	-590
▁Sam	-591
▁des	-592
ict	-593
air	-594
▁Refer	-595
▁loved	-596
▁References	-597
▁looked	-598
pr	-599
▁people	-600
other	-601
▁comm	-602
ened	-603
▁Se	-604
▁park	-605
▁came	-606
▁than	-607
▁5	-608
ved	-609
gr	-610
ise	-611
▁became	-612
ose	-613
ared	-614
ix	-615
outh	-616
▁no	-617
▁make	-618
▁started	-619
▁home	-620
▁many	-621
ury	-622
ames	-623
20	-624
ics	-625
hes	-626
▁Sh	-627
▁ran	-628
▁bu	-629
▁see	-630
▁will	-631
ne	-632
▁som	-633
▁col	-634
ral	-635
▁am	-636
anc	-637
▁lin	-638
▁film	-639
▁loc	-640
vel	-641
▁196	-642
▁op	-643
az	-644
ision	-645
▁good	-646
ale	-647
ah	-648
▁down	-649
king	-650
▁act	-651
▁show	-652
▁care	-653
au	-654
ays	-655
▁att	-656
▁felt	-657
▁took	-658
rop	-659
▁what	-660
▁around	-661
▁liked	-662
oup	-663
▁asked	-664
aw	-665
eld	-666
▁both	-667
▁end	-668
iled	-669
▁sec	-670
▁sur	-671
red	-672
ollow	-673
▁fin	-674
olog	-675
▁qu	-676
▁find	-677
▁United	-678
ont	-679
cess	-680
▁where	-681
inn	-682
ork	-683
▁every	-684
ause	-685
iversity	-686
▁spec	-687
orth	-688
ny	-689
▁any	-690
uck	-691
▁This	-692
rib	-693
▁Z	-694
▁playing	-695
▁Col	-696
▁away	-697
ped	-698
▁rem	-699
ower	-700
▁ele	-701
▁house	-702
ason	-703
ull	-704
▁Sc	-705
▁put	-706
▁Ind	-707
▁And	-708
ities	-709
ank	-710
▁only	-711
rough	-712
▁want	-713
▁Can	-714
ters	-715
por	-716
▁used	-717
ince	-718
▁Cl	-719
ife	-720
▁run	-721
▁long	-722
duc	-723
ternal	-724
▁6	-725
ists	-726
▁At	-727
ided	-728
rap	-729
ener	-730
▁Eng	-731
usic	-732
▁years	-733
ock	-734
▁reg	-735
▁sing	-736
▁call	-737
ier	-738
ins	-739
ned	-740
▁thought	-741
cent	-742
ex	-743
▁John	-744
na	-745
ash	-746
▁cent	-747
▁Br	-748
▁fam	-749
form	-750
▁cons	-751
▁pol	-752
ular	-753
ootball	-754
▁red	-755
ros	-756
▁school	-757
bum	-758
▁wal	-759
▁follow	-760
▁most	-761
▁ret	-762
ething	-763
▁smiled	-764
til	-765
▁my	-766
▁links	-767
▁Gr	-768
▁University	-769
ween	-770
▁ind	-771
▁high	-772
fore	-773
ublic	-774
▁being	-775
ph	-776
▁His	-777
der	-778
arm	-779
▁rel	-780
▁through	-781
▁You	-782
▁something	-783
▁pop	-784
ual	-785
▁External	-786
att	-787
▁Spot	-788
▁195	-789
▁sup	-790
▁form	-791
▁get	-792
▁three	-793
ield	-794
by	-795
▁ear	-796
▁lear	-797
▁194	-798
iet	-799
▁stud	-800
ident	-801
▁team	-802
▁est	-803
els	-804
▁during	-805
▁ass	-806
▁After	-807
▁Wh	-808
▁because	-809
ating	-810
abl	-811
row	-812
▁So	-813
▁Wor	-814
▁sub	-815
elf	-816
,"	-817
▁while	-818
ll	-819
▁Pro	-820
▁box	-821
▁water	-822
ley	-823
emb	-824
any	-825
▁each	-826
▁7	-827
▁dist	-828
▁Is	-829
ised	-830
▁Coun	-831
▁ke	-832
ures	-833
▁between	-834
▁(1	-835
▁near	-836
▁Her	-837
▁until	-838
▁num	-839
▁sy	-840
▁sl	-841
▁song	-842
▁how	-843
▁Bl	-844
▁best	-845
ik	-846
eb	-847
".	-848
▁inter	-849
▁players	-850
▁lived	-851
ague	-852
▁School	-853
vern	-854
▁work	-855
▁set	-856
oud	-857
▁later	-858
ather	-859
▁album	-860
▁before	-861
▁rele	-862
▁States	-863
ina	-864
resent	-865
0,	-866
▁Pr	-867
▁Aust	-868
▁Mia	-869
▁sk	-870
▁When	-871
▁sw	-872
ative	-873
son	-874
200	-875
▁ed	-876
▁old	-877
ged	-878
▁things	-879
▁know	-880
ograp	-881
du	-882
▁your	-883
▁War	-884
▁town	-885
ific	-886
▁sun	-887
▁str	-888
its	-889
1,	-890
ober	-891
vent	-892
ck	-893
▁such	-894
ways	-895
▁scared	-896
ara	-897
ever	-898
fe	-899
ments	-900
ired	-901
oss	-902
▁record	-903
▁game	-904
▁toys	-905
▁Or	-906
▁own	-907
ional	-908
erm	-909
▁Jan	-910
▁Bob	-911
2,	-912
erson	-913
▁Pl	-914
iam	-915
▁ent	-916
▁Con	-917
▁char	-918
▁Car	-919
▁World	-920
▁Tr	-921
igin	-922
▁8	-923
▁well	-924
▁Luc	-925
ger	-926
Th	-927
cc	-928
▁second	-929
▁De	-930
▁got	-931
ven	-932
",	-933
5,	-934
▁Fran	-935
▁trans	-936
▁May	-937
▁Q	-938
ern	-939
co	-940
▁Mom	-941
▁We	-942
▁known	-943
6,	-944
▁17	-945
aking	-946
▁called	-947
▁Brit	-948
▁Ger	-949
▁mon	-950
▁National	-951
erv	-952
ese	-953
▁mar	-954
rict	-955
ected	-956
▁season	-957
aj	-958
velop	-959
mp	-960
▁lot	-961
▁family	-962
▁tried	-963
▁bro	-964
▁says	-965
▁much	-966
udd	-967
▁art	-968
une	-969
▁Comm	-970
▁name	-971
led	-972
▁just	-973
ered	-974
iew	-975
3,	-976
▁lar	-977
▁dif	-978
ism	-979
▁9	-980
▁Ad	-981
▁serv	-982
▁dr	-983
▁gu	-984
▁Fl	-985
▁exp	-986
ott	-987
▁hand	-988
rew	-989
▁For	-990
▁outside	-991
▁establ	-992
▁All	-993
▁dire	-994
▁wr	-995
reen	-996
uss	-997
▁room	-998
4,	-999
▁appear	-1000
ann	-1001
▁sign	-1002
▁Ph	-1003
▁193	-1004
▁list	-1005
urch	-1006
▁football	-1007
tain	-1008
ink	-1009
▁inc	-1010
let	-1011
▁&	-1012
▁four	-1013
▁inv	-1014
▁decided	-1015
▁inst	-1016
iving	-1017
▁Lucy	-1018
atch	-1019
▁group	-1020
iver	-1021
ctor	-1022
ized	-1023
▁if	-1024
▁med	-1025
▁Ge	-1026
▁need	-1027
▁lead	-1028
▁music	-1029
▁add	-1030
▁now	-1031
▁acc	-1032
0.	-1033
▁series	-1034
▁take	-1035
▁prov	-1036
▁always	-1037
ross	-1038
▁cur	-1039
▁Be	-1040
▁Hist	-1041
ient	-1042
ron	-1043
▁oper	-1044
ces	-1045
uff	-1046
▁exc	-1047
▁Austral	-1048
▁may	-1049
▁build	-1050
▁mod	-1051
▁pret	-1052
▁rep	-1053
▁South	-1054
▁including	-1055
ok	-1056
7,	-1057
icip	-1058
▁anim	-1059
stem	-1060
▁min	-1061
▁int	-1062
▁par	-1063
▁met	-1064
ept	-1065
▁head	-1066
▁German	-1067
irth	-1068
▁knew	-1069
▁place	-1070
ster	-1071
8,	-1072
▁York	-1073
aving	-1074
▁number	-1075
▁origin	-1076
▁From	-1077
▁against	-1078
ret	-1079
▁hist	-1080
ey	-1081
ute	-1082
▁learned	-1083
▁even	-1084
ady	-1085
▁turn	-1086
ars	-1087
lev	-1088
bs	-1089
ft	-1090
ives	-1091
▁use	-1092
▁gave	-1093
▁let	-1094
oci	-1095
▁British	-1096
ister	-1097
▁still	-1098
ulation	-1099
▁jum	-1100
ax	-1101
born	-1102
▁Canad	-1103
▁fore	-1104
ians	-1105
ble	-1106
ium	-1107
ote	-1108
▁mag	-1109
▁County	-1110
▁.	-1111
imes	-1112
–1	-1113
enn	-1114
▁cre	-1115
▁special	-1116
▁won	-1117
▁main	-1118
ung	-1119
ution	-1120
ternational	-1121
ural	-1122
osed	-1123
cted	-1124
▁area	-1125
augh	-1126
▁cap	-1127
▁Then	-1128
▁bus	-1129
uth	-1130
▁Ju	-1131
sp	-1132
▁cle	-1133
▁bel	-1134
br	-1135
yp	-1136
▁told	-1137
▁birth	-1138
▁began	-1139
ually	-1140
▁em	-1141
gram	-1142
ole	-1143
lish	-1144
ting	-1145
ues	-1146
▁develop	-1147
oman	-1148
▁former	-1149
▁gener	-1150
▁Cent	-1151
ced	-1152
iny	-1153
ains	-1154
▁offic	-1155
▁Chr	-1156
ology	-1157
ai	-1158
▁15	-1159
▁plan	-1160
ampions	-1161
ughed	-1162
▁North	-1163
▁contin	-1164
▁air	-1165
ox	-1166
▁laughed	-1167
▁child	-1168
▁sever	-1169
▁count	-1170
ean	-1171
▁Bar	-1172
▁Par	-1173
▁How	-1174
▁10	-1175
▁inside	-1176
▁16	-1177
lege	-1178
▁differ	-1179
▁opened	-1180
▁rock	-1181
▁same	-1182
▁contr	-1183
wards	-1184
–19	-1185
▁rece	-1186
▁death	-1187
ask	-1188
▁There	-1189
ible	-1190
▁games	-1191
▁station	-1192
▁cr	-1193
eter	-1194
The	-1195
▁ext	-1196
▁City	-1197
▁ide	-1198
ages	-1199
▁Am	-1200
▁dad	-1201
▁prom	-1202
que	-1203
embers	-1204
▁Rec	-1205
▁Dec	-1206
ement	-1207
▁hug	-1208
▁land	-1209
▁design	-1210
▁ph	-1211
▁writ	-1212
ets	-1213
▁English	-1214
▁'	-1215
vernment	-1216
ugust	-1217
▁gl	-1218
▁Gu	-1219
▁rest	-1220
akes	-1221
▁stop	-1222
▁12	-1223
▁Pol	-1224
ple	-1225
▁See	-1226
▁never	-1227
riv	-1228
sh	-1229
orts	-1230
ior	-1231
uary	-1232
ued	-1233
▁League	-1234
▁Ed	-1235
fl	-1236
▁Man	-1237
ike	-1238
ained	-1239
9,	-1240
000	-1241
▁const	-1242
▁Will	-1243
▁fish	-1244
▁released	-1245
▁return	-1246
▁life	-1247
levision	-1248
▁Cal	-1249
▁way	-1250
▁var	-1251
ital	-1252
▁suc	-1253
▁surpr	-1254
ject	-1255
▁Eu	-1256
lew	-1257
▁feat	-1258
1.	-1259
▁feel	-1260
fess	-1261
▁organ	-1262
▁August	-1263
inc	-1264
ats	-1265
aster	-1266
▁join	-1267
▁Ass	-1268
▁King	-1269
▁state	-1270
ission	-1271
ony	-1272
for	-1273
eptember	-1274
day	-1275
urt	-1276
▁great	-1277
Yes	-1278
▁(200	-1279
▁food	-1280
▁band	-1281
▁2006	-1282
▁che	-1283
▁open	-1284
▁system	-1285
omen	-1286
▁pass	-1287
▁High	-1288
▁next	-1289
▁book	-1290
▁ground	-1291
▁dep	-1292
▁look	-1293
▁excited	-1294
ilt	-1295
▁fr	-1296
2.	-1297
▁Te	-1298
▁nice	-1299
▁Oct	-1300
▁eat	-1301
▁polit	-1302
ator	-1303
ched	-1304
oor	-1305
▁produc	-1306
ality	-1307
▁several	-1308
ning	-1309
▁March	-1310
oon	-1311
ines	-1312
▁these	-1313
ham	-1314
▁poin	-1315
▁192	-1316
▁Sw	-1317
▁September	-1318
▁June	-1319
eft	-1320
▁early	-1321
▁Anna	-1322
▁II	-1323
ords	-1324
▁pretty	-1325
▁Har	-1326
ek	-1327
▁story	-1328
ries	-1329
▁club	-1330
▁fast	-1331
▁following	-1332
▁Bro	-1333
pril	-1334
yl	-1335
▁US	-1336
▁try	-1337
▁July	-1338
▁class	-1339
▁tal	-1340
▁world	-1341
▁kind	-1342
▁produ	-1343
▁held	-1344
▁along	-1345
lect	-1346
ially	-1347
ured	-1348
▁ann	-1349
3.	-1350
▁better	-1351
raw	-1352
▁def	-1353
orry	-1354
key	-1355
ices	-1356
▁public	-1357
▁program	-1358
▁vill	-1359
▁October	-1360
▁History	-1361
▁Reg	-1362
aces	-1363
▁wind	-1364
▁Char	-1365
▁should	-1366
▁State	-1367
▁top	-1368
▁Christ	-1369
▁January	-1370
ility	-1371
▁Ste	-1372
4.	-1373
mber	-1374
aced	-1375
rent	-1376
▁Rep	-1377
▁Comp	-1378
▁191	-1379
com	-1380
aut	-1381
▁city	-1382
▁hard	-1383
201	-1384
abb	-1385
ert	-1386
▁left	-1387
▁expl	-1388
ography	-1389
self	-1390
ten	-1391
idge	-1392
▁resp	-1393
▁imp	-1394
ling	-1395
▁April	-1396
▁charac	-1397
angu	-1398
ama	-1399
▁different	-1400
▁Amy	-1401
view	-1402
▁careful	-1403
▁—	-1404
▁Geor	-1405
ange	-1406
century	-1407
the	-1408
ges	-1409
▁West	-1410
▁commun	-1411
▁Fin	-1412
5.	-1413
more	-1414
ids	-1415
ampionship	-1416
▁Europ	-1417
ovember	-1418
yn	-1419
apan	-1420
▁career	-1421
▁since	-1422
be	-1423
alth	-1424
▁publ	-1425
▁squ	-1426
▁bear	-1427
▁Jack	-1428
▁Af	-1429
▁don	-1430
▁animals	-1431
ended	-1432
▁another	-1433
▁sn	-1434
▁idea	-1435
▁population	-1436
ilit	-1437
ights	-1438
▁No	-1439
▁leg	-1440
ene	-1441
▁202	-1442
min	-1443
▁pres	-1444
ales	-1445
ison	-1446
▁December	-1447
▁bre	-1448
ored	-1449
idd	-1450
▁comple	-1451
ience	-1452
▁repl	-1453
ma	-1454
gy	-1455
ner	-1456
ically	-1457
▁sorry	-1458
▁having	-1459
▁Mc	-1460
ille	-1461
▁lost	-1462
▁sim	-1463
7.	-1464
▁strong	-1465
▁November	-1466
ald	-1467
ane	-1468
ush	-1469
▁fly	-1470
▁share	-1471
che	-1472
▁didn	-1473
▁tit	-1474
iness	-1475
▁located	-1476
▁El	-1477
aul	-1478
imb	-1479
reet	-1480
con	-1481
▁based	-1482
8.	-1483
▁eff	-1484
▁heard	-1485
▁say	-1486
▁eng	-1487
▁established	-1488
▁person	-1489
echn	-1490
ection	-1491
icked	-1492
▁come	-1493
unicip	-1494
ode	-1495
▁men	-1496
aff	-1497
▁happened	-1498
ides	-1499
oft	-1500
ring	-1501
ruct	-1502
▁manag	-1503
▁walked	-1504
▁pain	-1505
▁import	-1506
▁Med	-1507
ae	-1508
▁members	-1509
▁ever	-1510
▁cour	-1511
▁Ro	-1512
aining	-1513
ects	-1514
▁Japan	-1515
▁line	-1516
arden	-1517
..	-1518
▁century	-1519
▁Go	-1520
▁occ	-1521
▁College	-1522
ze	-1523
rog	-1524
2)	-1525
▁move	-1526
▁maj	-1527
ream	-1528
▁war	-1529
▁success	-1530
ford	-1531
▁law	-1532
ebru	-1533
ards	-1534
ebruary	-1535
ature	-1536
▁sky	-1537
▁Ab	-1538
▁del	-1539
af	-1540
▁vers	-1541
▁11	-1542
▁beh	-1543
ants	-1544
ches	-1545
ooks	-1546
▁tre	-1547
▁Dav	-1548
ney	-1549
▁Park	-1550
▁bug	-1551
me	-1552
aly	-1553
▁However	-1554
rench	-1555
▁major	-1556
rel	-1557
ana	-1558
cept	-1559
▁13	-1560
▁Soc	-1561
▁ref	-1562
earch	-1563
umb	-1564
▁Co	-1565
▁Min	-1566
ech	-1567
itten	-1568
▁television	-1569
ently	-1570
atic	-1571
▁player	-1572
▁,	-1573
▁February	-1574
▁births	-1575
▁read	-1576
ows	-1577
▁Air	-1578
▁term	-1579
▁X	-1580
med	-1581
▁Every	-1582
iety	-1583
▁bad	-1584
▁Dist	-1585
▁real	-1586
▁films	-1587
▁built	-1588
▁single	-1589
▁power	-1590
▁Ne	-1591
adem	-1592
▁compet	-1593
▁Cup	-1594
▁ob	-1595
▁William	-1596
-1	-1597
▁government	-1598
▁flew	-1599
uk	-1600
▁refer	-1601
▁Sy	-1602
▁vis	-1603
▁right	-1604
▁stand	-1605
ivision	-1606
adio	-1607
ino	-1608
eng	-1609
▁Dr	-1610
▁hop	-1611
ery	-1612
itions	-1613
▁14	-1614
ached	-1615
aves	-1616
▁clean	-1617
ined	-1618
amb	-1619
avy	-1620
▁blue	-1621
9.	-1622
▁last	-1623
▁wa	-1624
▁children	-1625
reed	-1626
▁Ser	-1627
▁local	-1628
ody	-1629
aren	-1630
▁forest	-1631
ape	-1632
osition	-1633
▁worked	-1634
▁190	-1635
▁(199	-1636
used	-1637
ondon	-1638
▁Sup	-1639
▁love	-1640
▁French	-1641
6.	-1642
▁event	-1643
ief	-1644
▁large	-1645
gest	-1646
▁company	-1647
▁ep	-1648
▁Sec	-1649
▁sit	-1650
▁Ear	-1651
aper	-1652
estern	-1653
▁others	-1654
ately	-1655
▁La	-1656
▁national	-1657
▁anymore	-1658
▁full	-1659
ata	-1660
acks	-1661
ones	-1662
▁give	-1663
▁Cor	-1664
▁soc	-1665
▁field	-1666
▁Part	-1667
▁stay	-1668
▁due	-1669
▁Me	-1670
ociation	-1671
▁Ang	-1672
stit	-1673
▁win	-1674
uthor	-1675
▁camp	-1676
▁important	-1677
1)	-1678
illion	-1679
ideo	-1680
▁village	-1681
bo	-1682
▁member	-1683
eder	-1684
▁Phil	-1685
3)	-1686
udden	-1687
▁Em	-1688
▁side	-1689
Thank	-1690
omin	-1691
▁lots	-1692
▁bar	-1693
yle	-1694
▁north	-1695
5)	-1696
▁desc	-1697
▁“	-1698
▁safe	-1699
isc	-1700
▁Afric	-1701
▁Ac	-1702
urg	-1703
ms	-1704
▁San	-1705
▁coun	-1706
▁During	-1707
▁published	-1708
owers	-1709
▁fell	-1710
eal	-1711
▁International	-1712
▁ri	-1713
▁sound	-1714
▁av	-1715
▁present	-1716
▁London	-1717
▁making	-1718
▁People	-1719
▁prot	-1720
▁Russ	-1721
▁history	-1722
▁order	-1723
ified	-1724
▁fire	-1725
inning	-1726
ugh	-1727
▁z	-1728
ington	-1729
4)	-1730
7)	-1731
iter	-1732
▁short	-1733
aim	-1734
▁garden	-1735
▁pat	-1736
▁cond	-1737
▁det	-1738
▁Res	-1739
▁keep	-1740
▁served	-1741
You	-1742
8)	-1743
▁List	-1744
sc	-1745
though	-1746
▁moved	-1747
▁Mich	-1748
▁door	-1749
cil	-1750
ival	-1751
ps	-1752
▁educ	-1753
▁Sara	-1754
illed	-1755
ilitary	-1756
pected	-1757
▁include	-1758
▁does	-1759
oice	-1760
ency	-1761
▁profess	-1762
lymp	-1763
▁original	-1764
6)	-1765
▁Film	-1766
cle	-1767
▁five	-1768
ourn	-1769
▁picked	-1770
▁helped	-1771
anguage	-1772
▁(18	-1773
▁pe	-1774
urs	-1775
▁Gl	-1776
ories	-1777
▁Olymp	-1778
▁soft	-1779
▁po	-1780
▁shiny	-1781
ording	-1782
iod	-1783
ively	-1784
atter	-1785
▁clos	-1786
▁building	-1787
▁six	-1788
▁Per	-1789
ves	-1790
▁requ	-1791
uddenly	-1792
▁River	-1793
▁climb	-1794
▁perform	-1795
▁ang	-1796
par	-1797
itar	-1798
▁Indian	-1799
▁party	-1800
▁cover	-1801
▁Off	-1802
urther	-1803
Let	-1804
▁appro	-1805
▁Do	-1806
▁consid	-1807
▁|-	-1808
iforn	-1809
▁late	-1810
▁Australia	-1811
raft	-1812
▁Art	-1813
▁189	-1814
ization	-1815
▁stat	-1816
▁final	-1817
▁included	-1818
▁Not	-1819
▁proud	-1820
▁hum	-1821
▁hold	-1822
▁soon	-1823
▁far	-1824
▁race	-1825
▁unex	-1826
▁typ	-1827
less	-1828
ng	-1829
vious	-1830
rans	-1831
▁ant	-1832
▁district	-1833
ifornia	-1834
ering	-1835
▁cake	-1836
▁surprised	-1837
cer	-1838
▁sold	-1839
ipp	-1840
▁brother	-1841
▁born	-1842
▁England	-1843
ument	-1844
▁within	-1845
int	-1846
▁received	-1847
▁unexpected	-1848
ummer	-1849
ize	-1850
osp	-1851
▁tri	-1852
▁21	-1853
▁California	-1854
reg	-1855
▁Sch	-1856
ots	-1857
rick	-1858
▁beaut	-1859
illy	-1860
No	-1861
ler	-1862
▁val	-1863
iven	-1864
▁less	-1865
▁es	-1866
▁third	-1867
▁store	-1868
0)	-1869
▁Championship	-1870
iles	-1871
▁Des	-1872
ness	-1873
attle	-1874
▁House	-1875
▁south	-1876
alf	-1877
ration	-1878
▁spe	-1879
▁By	-1880
▁nov	-1881
hat	-1882
▁With	-1883
▁East	-1884
▁Mon	-1885
epend	-1886
oney	-1887
▁post	-1888
▁sat	-1889
▁died	-1890
▁$	-1891
ported	-1892
oyal	-1893
▁addition	-1894
iful	-1895
▁deb	-1896
▁fav	-1897
▁son	-1898
umn	-1899
▁non	-1900
▁mean	-1901
▁hig	-1902
▁elect	-1903
▁dem	-1904
▁municip	-1905
▁women	-1906
▁service	-1907
▁adv	-1908
▁often	-1909
▁round	-1910
isted	-1911
▁pict	-1912
▁support	-1913
ense	-1914
▁incre	-1915
▁disc	-1916
▁character	-1917
▁road	-1918
ani	-1919
▁fac	-1920
▁District	-1921
▁mark	-1922
dom	-1923
tal	-1924
▁equ	-1925
9)	-1926
▁sol	-1927
ruction	-1928
▁showed	-1929
▁cor	-1930
hern	-1931
ummy	-1932
▁Let	-1933
▁Island	-1934
▁trad	-1935
ead	-1936
▁iss	-1937
▁led	-1938
▁describ	-1939
alt	-1940
▁Mr	-1941
▁beg	-1942
off	-1943
▁Australian	-1944
▁grow	-1945
ases	-1946
ailway	-1947
▁thanked	-1948
▁Canada	-1949
iec	-1950
▁walk	-1951
▁Act	-1952
line	-1953
▁Bo	-1954
▁hugged	-1955
▁going	-1956
▁few	-1957
▁hurt	-1958
▁Pres	-1959
asket	-1960
lex	-1961
▁dri	-1962
field	-1963
▁Pre	-1964
▁chang	-1965
▁period	-1966
▁green	-1967
lin	-1968
▁current	-1969
▁jumped	-1970
▁night	-1971
acy	-1972
▁loud	-1973
kay	-1974
lease	-1975
▁version	-1976
▁start	-1977
ica	-1978
▁el	-1979
▁Sm	-1980
conom	-1981
.,	-1982
▁himself	-1983
ming	-1984
▁those	-1985
▁rain	-1986
ville	-1987
▁miss	-1988
▁Church	-1989
▁Canadian	-1990
▁Paul	-1991
▁David	-1992
▁opp	-1993
▁2000	-1994
orthern	-1995
▁frog	-1996
▁While	-1997
oute	-1998
▁allow	-1999
odd	-2000
▁without	-2001
artment	-2002
itty	-2003
▁Roman	-2004
▁Tw	-2005
▁country	-2006
▁cast	-2007
▁represent	-2008
▁beautiful	-2009
useum	-2010
eneral	-2011
▁author	-2012
▁ship	-2013
▁tell	-2014
▁George	-2015
hic	-2016
▁ve	-2017
▁jump	-2018
▁must	-2019
It	-2020
▁aff	-2021
▁continued	-2022
▁Rober	-2023
▁light	-2024
▁Qu	-2025
▁male	-2026
▁Nor	-2027
▁become	-2028
▁Music	-2029
▁business	-2030
unny	-2031
▁engine	-2032
▁listen	-2033
▁ey	-2034
etimes	-2035
▁Ber	-2036
bor	-2037
▁My	-2038
work	-2039
▁(201	-2040
ploy	-2041
▁popular	-2042
ael	-2043
▁father	-2044
▁James	-2045
▁exper	-2046
▁stopped	-2047
▁1,	-2048
ander	-2049
ilar	-2050
▁mov	-2051
ken	-2052
▁bed	-2053
▁conf	-2054
▁fall	-2055
hel	-2056
▁announ	-2057
▁behind	-2058
▁crit	-2059
▁songs	-2060
▁Port	-2061
▁Ag	-2062
▁epis	-2063
▁books	-2064
▁draw	-2065
▁188	-2066
zy	-2067
▁written	-2068
ett	-2069
ecut	-2070
▁students	-2071
▁Rich	-2072
▁port	-2073
▁Mor	-2074
uel	-2075
▁Suddenly	-2076
▁site	-2077
bert	-2078
ament	-2079
▁arch	-2080
▁among	-2081
▁month	-2082
ha	-2083
▁India	-2084
▁Street	-2085
ius	-2086
▁Thom	-2087
lection	-2088
▁Just	-2089
▁title	-2090
▁poss	-2091
▁cult	-2092
▁Red	-2093
▁cry	-2094
▁2005	-2095
▁boat	-2096
▁establish	-2097
▁seen	-2098
▁common	-2099
icy	-2100
▁Val	-2101
dy	-2102
ribut	-2103
▁tem	-2104
▁level	-2105
ky	-2106
itc	-2107
▁That	-2108
▁kids	-2109
ours	-2110
▁magic	-2111
▁Award	-2112
cast	-2113
thing	-2114
▁Army	-2115
▁Sally	-2116
▁doll	-2117
▁activ	-2118
▁Trans	-2119
▁Kitty	-2120
▁Dep	-2121
tt	-2122
ivil	-2123
olic	-2124
rest	-2125
▁fact	-2126
ops	-2127
▁everyone	-2128
iding	-2129
▁wood	-2130
▁produced	-2131
▁role	-2132
▁hot	-2133
▁given	-2134
aur	-2135
▁watch	-2136
ray	-2137
▁black	-2138
▁kept	-2139
▁(198	-2140
▁Now	-2141
ump	-2142
ello	-2143
▁ter	-2144
▁Association	-2145
▁Road	-2146
▁followed	-2147
▁reached	-2148
▁days	-2149
BC	-2150
▁happily	-2151
▁fight	-2152
▁Que	-2153
ades	-2154
ournal	-2155
▁Lou	-2156
iction	-2157
▁Dem	-2158
Can	-2159
▁ice	-2160
▁Pat	-2161
▁Acc	-2162
▁here	-2163
▁hands	-2164
▁186	-2165
▁voc	-2166
▁Mark	-2167
thern	-2168
▁invol	-2169
▁mat	-2170
ellow	-2171
▁warm	-2172
▁Mary	-2173
▁previous	-2174
▁result	-2175
omb	-2176
▁close	-2177
▁histor	-2178
▁times	-2179
ills	-2180
▁using	-2181
▁Republic	-2182
iddle	-2183
▁Grand	-2184
astern	-2185
▁techn	-2186
▁face	-2187
ico	-2188
pe	-2189
▁Bel	-2190
▁vol	-2191
ption	-2192
uz	-2193
▁guitar	-2194
hys	-2195
outhern	-2196
str	-2197
▁video	-2198
▁TV	-2199
wer	-2200
▁Football	-2201
forman	-2202
▁species	-2203
reek	-2204
iting	-2205
▁Jos	-2206
▁Don	-2207
▁Mal	-2208
ention	-2209
▁intro	-2210
▁pract	-2211
anish	-2212
▁direct	-2213
rown	-2214
▁Hol	-2215
ago	-2216
▁total	-2217
▁Cour	-2218
▁Pal	-2219
▁returned	-2220
▁Club	-2221
▁These	-2222
▁Living	-2223
▁er	-2224
oke	-2225
▁Other	-2226
▁ca	-2227
▁ren	-2228
▁age	-2229
adu	-2230
ances	-2231
50	-2232
▁struct	-2233
go	-2234
aken	-2235
▁treat	-2236
▁our	-2237
formation	-2238
▁France	-2239
ranch	-2240
leep	-2241
ris	-2242
minist	-2243
ania	-2244
▁birds	-2245
▁various	-2246
▁official	-2247
joy	-2248
▁Hall	-2249
▁pri	-2250
itz	-2251
▁free	-2252
ground	-2253
inal	-2254
▁Stud	-2255
itor	-2256
iron	-2257
▁works	-2258
▁Records	-2259
▁prim	-2260
▁Year	-2261
▁flowers	-2262
▁187	-2263
▁sett	-2264
▁belie	-2265
▁lab	-2266
itch	-2267
▁comb	-2268
▁wrote	-2269
▁pur	-2270
▁community	-2271
▁sent	-2272
oral	-2273
▁million	-2274
tr	-2275
ivid	-2276
▁angry	-2277
▁Cath	-2278
ki	-2279
▁mouse	-2280
agon	-2281
▁host	-2282
▁general	-2283
ogn	-2284
▁joined	-2285
▁wat	-2286
▁mix	-2287
▁2004	-2288
▁et	-2289
iol	-2290
ele	-2291
▁process	-2292
We	-2293
▁init	-2294
▁appeared	-2295
▁General	-2296
▁European	-2297
mit	-2298
iment	-2299
▁Mag	-2300
▁laugh	-2301
▁Black	-2302
▁mother	-2303
▁cross	-2304
▁fix	-2305
▁region	-2306
▁created	-2307
▁truck	-2308
▁mot	-2309
▁turned	-2310
▁mess	-2311
▁Division	-2312
▁30	-2313
▁live	-2314
▁Royal	-2315
▁stick	-2316
▁Sl	-2317
ais	-2318
▁America	-2319
uffy	-2320
men	-2321
▁piec	-2322
▁schools	-2323
ule	-2324
▁net	-2325
▁defe	-2326
▁albums	-2327
▁production	-2328
What	-2329
ither	-2330
▁Academ	-2331
olf	-2332
inner	-2333
▁international	-2334
ination	-2335
li	-2336
stand	-2337
sequ	-2338
▁Party	-2339
▁noise	-2340
▁favor	-2341
▁prop	-2342
▁Council	-2343
aughter	-2344
▁running	-2345
▁base	-2346
▁voice	-2347
▁key	-2348
▁Ital	-2349
Don	-2350
ari	-2351
▁award	-2352
de	-2353
▁Town	-2354
▁deaths	-2355
▁di	-2356
olution	-2357
ston	-2358
apped	-2359
▁First	-2360
▁church	-2361
▁however	-2362
▁couldn	-2363
▁claim	-2364
▁[	-2365
▁dest	-2366
▁though	-2367
irt	-2368
▁white	-2369
▁pull	-2370
asketball	-2371
ban	-2372
ida	-2373
lic	-2374
▁rabb	-2375
▁Sing	-2376
▁hat	-2377
▁yummy	-2378
▁hon	-2379
▁Germany	-2380
ological	-2381
▁meet	-2382
▁similar	-2383
▁enjoy	-2384
gin	-2385
▁broad	-2386
▁catch	-2387
▁coach	-2388
▁development	-2389
nel	-2390
▁2007	-2391
erous	-2392
oph	-2393
erry	-2394
▁military	-2395
▁reach	-2396
▁To	-2397
iers	-2398
ying	-2399
▁Mart	-2400
▁offer	-2401
▁pot	-2402
▁Union	-2403
▁train	-2404
ee	-2405
▁ate	-2406
▁webs	-2407
▁Scott	-2408
ountain	-2409
▁Wash	-2410
ample	-2411
ude	-2412
lo	-2413
▁cir	-2414
▁learn	-2415
cy	-2416
flu	-2417
▁Pop	-2418
▁conn	-2419
▁Arch	-2420
▁cook	-2421
▁cars	-2422
▁inf	-2423
▁cut	-2424
▁sug	-2425
ators	-2426
▁agreed	-2427
ift	-2428
uit	-2429
▁sand	-2430
▁looking	-2431
St	-2432
rian	-2433
▁Miss	-2434
right	-2435
▁finished	-2436
▁ins	-2437
▁dark	-2438
▁style	-2439
hers	-2440
▁cand	-2441
▁table	-2442
▁half	-2443
▁announced	-2444
weet	-2445
▁mult	-2446
year	-2447
▁brave	-2448
▁match	-2449
▁debut	-2450
play	-2451
wood	-2452
eck	-2453
▁Jew	-2454
▁talk	-2455
▁Company	-2456
▁shared	-2457
▁fem	-2458
▁Hen	-2459
-19	-2460
▁Robert	-2461
▁25	-2462
▁dress	-2463
▁advent	-2464
▁wall	-2465
▁hit	-2466
▁sometimes	-2467
▁Tex	-2468
▁paper	-2469
▁color	-2470
aring	-2471
▁leaves	-2472
▁river	-2473
▁2003	-2474
▁2001	-2475
▁partic	-2476
▁Peter	-2477
▁Law	-2478
▁Li	-2479
▁areas	-2480
▁test	-2481
▁Kingdom	-2482
▁control	-2483
▁Sim	-2484
▁Jim	-2485
ila	-2486
▁hole	-2487
uf	-2488
▁Washington	-2489
aby	-2490
▁Cont	-2491
▁across	-2492
lected	-2493
▁slide	-2494
▁position	-2495
▁sour	-2496
▁bas	-2497
▁eyes	-2498
ensive	-2499
ano	-2500
▁Cap	-2501
▁job	-2502
▁quick	-2503
▁appoin	-2504
ocks	-2505
▁point	-2506
hem	-2507
▁brought	-2508
ider	-2509
▁political	-2510
▁needed	-2511
▁attem	-2512
▁body	-2513
▁league	-2514
▁chair	-2515
▁track	-2516
ockey	-2517
▁Italian	-2518
▁past	-2519
▁trees	-2520
▁Educ	-2521
aged	-2522
▁performan	-2523
▁enc	-2524
▁conc	-2525
▁Tur	-2526
ably	-2527
▁young	-2528
lands	-2529
▁grand	-2530
▁married	-2531
most	-2532
▁stations	-2533
▁Michael	-2534
▁Play	-2535
▁cold	-2536
▁modern	-2537
▁interest	-2538
irrel	-2539
▁Sar	-2540
▁Some	-2541
▁aut	-2542
▁east	-2543
▁recorded	-2544
itchen	-2545
▁politic	-2546
▁(197	-2547
▁novel	-2548
▁Japanese	-2549
aint	-2550
▁floor	-2551
▁website	-2552
▁UK	-2553
ev	-2554
▁described	-2555
▁Sen	-2556
▁done	-2557
nder	-2558
▁farm	-2559
sy	-2560
▁1990	-2561
ka	-2562
▁2002	-2563
▁roll	-2564
Hi	-2565
▁radio	-2566
▁king	-2567
room	-2568
▁fre	-2569
umni	-2570
▁tall	-2571
▁gen	-2572
▁indust	-2573
▁2019	-2574
▁Christian	-2575
▁lim	-2576
▁Prov	-2577
▁language	-2578
▁Ir	-2579
▁smile	-2580
▁ra	-2581
▁proble	-2582
berg	-2583
▁break	-2584
▁groups	-2585
▁ten	-2586
▁professional	-2587
aught	-2588
kn	-2589
icial	-2590
▁Pri	-2591
iced	-2592
anies	-2593
▁24	-2594
▁Press	-2595
▁whe	-2596
▁President	-2597
anced	-2598
▁Cast	-2599
▁Mont	-2600
▁Commun	-2601
▁further	-2602
▁working	-2603
▁paren	-2604
roy	-2605
▁Pet	-2606
▁Sal	-2607
uation	-2608
▁Thomas	-2609
▁Mac	-2610
▁view	-2611
▁Angel	-2612
▁hous	-2613
ume	-2614
▁education	-2615
▁Group	-2616
▁might	-2617
▁swim	-2618
▁squirrel	-2619
ili	-2620
▁Cr	-2621
▁nodd	-2622
ending	-2623
▁Serv	-2624
▁2008	-2625
▁hill	-2626
▁Bay	-2627
▁div	-2628
board	-2629
▁Tor	-2630
▁Louis	-2631
▁considered	-2632
▁pond	-2633
▁Mus	-2634
▁Green	-2635
▁dance	-2636
▁nodded	-2637
▁Great	-2638
ocr	-2639
▁case	-2640
▁Mad	-2641
▁Best	-2642
▁Kn	-2643
rove	-2644
ependent	-2645
▁2020	-2646
▁avail	-2647
▁Alex	-2648
▁closed	-2649
▁rabbit	-2650
CA	-2651
Look	-2652
▁individ	-2653
odes	-2654
▁Inter	-2655
▁funny	-2656
▁trav	-2657
time	-2658
▁ste	-2659
▁mer	-2660
ique	-2661
▁Met	-2662
wh	-2663
acing	-2664
▁Instit	-2665
▁coll	-2666
–0	-2667
▁2010	-2668
▁rul	-2669
▁Bill	-2670
val	-2671
duced	-2672
reland	-2673
▁Europe	-2674
30	-2675
▁Vir	-2676
▁founded	-2677
ises	-2678
▁remember	-2679
▁able	-2680
estival	-2681
▁1980	-2682
▁proper	-2683
▁Texas	-2684
▁ident	-2685
▁100	-2686
▁Court	-2687
ij	-2688
▁vict	-2689
▁Jane	-2690
▁Fluffy	-2691
▁Bu	-2692
hib	-2693
icks	-2694
▁bunny	-2695
▁west	-2696
▁kitchen	-2697
That	-2698
▁mid	-2699
▁Charles	-2700
▁Catholic	-2701
read	-2702
mar	-2703
▁separ	-2704
▁wife	-2705
▁events	-2706
burg	-2707
▁yellow	-2708
▁director	-2709
▁week	-2710
▁lik	-2711
▁liter	-2712
itive	-2713
▁Mex	-2714
▁tradition	-2715
▁tail	-2716
▁tired	-2717
▁touch	-2718
||	-2719
▁completed	-2720
▁flower	-2721
▁thing	-2722
▁econom	-2723
▁low	-2724
arr	-2725
▁spl	-2726
▁daughter	-2727
▁sleep	-2728
▁disco	-2729
ym	-2730
ella	-2731
▁Gold	-2732
azine	-2733
▁Super	-2734
asure	-2735
idence	-2736
▁Order	-2737
▁election	-2738
ya	-2739
▁Kh	-2740
ror	-2741
▁Bra	-2742
▁wear	-2743
▁moral	-2744
▁release	-2745
▁services	-2746
▁bow	-2747
▁developed	-2748
la	-2749
▁human	-2750
▁Central	-2751
ado	-2752
atre	-2753
itte	-2754
▁office	-2755
▁Western	-2756
▁project	-2757
▁teams	-2758
▁points	-2759
▁employ	-2760
▁priv	-2761
▁formed	-2762
alk	-2763
▁signed	-2764
▁bag	-2765
ether	-2766
▁Fr	-2767
▁creat	-2768
▁relations	-2769
▁Franc	-2770
▁higher	-2771
anded	-2772
oring	-2773
aps	-2774
▁sea	-2775
▁According	-2776
▁Flor	-2777
▁taken	-2778
▁Fred	-2779
ship	-2780
▁successful	-2781
▁phot	-2782
bour	-2783
ushed	-2784
▁president	-2785
▁cer	-2786
▁pick	-2787
elled	-2788
▁Society	-2789
ucky	-2790
▁influ	-2791
="	-2792
▁sunny	-2793
▁sports	-2794
▁Song	-2795
▁Center	-2796
▁Budd	-2797
oom	-2798
▁example	-2799
▁Rob	-2800
▁bit	-2801
▁available	-2802
za	-2803
ising	-2804
aker	-2805
▁runs	-2806
omes	-2807
ospital	-2808
▁mus	-2809
ults	-2810
craft	-2811
▁particip	-2812
▁grass	-2813
▁particular	-2814
▁Cam	-2815
▁once	-2816
▁change	-2817
▁Vol	-2818
▁fail	-2819
▁Pe	-2820
rael	-2821
▁plant	-2822
▁front	-2823
▁cost	-2824
▁Ann	-2825
asons	-2826
▁Bi	-2827
▁Vict	-2828
head	-2829
▁Dad	-2830
aign	-2831
▁market	-2832
uter	-2833
▁1.	-2834
▁2009	-2835
▁slow	-2836
▁invest	-2837
▁favorite	-2838
▁heavy	-2839
ceed	-2840
▁hair	-2841
▁stri	-2842
▁promot	-2843
unch	-2844
fect	-2845
▁2011	-2846
▁Brown	-2847
▁recogn	-2848
▁China	-2849
ilities	-2850
rd	-2851
unk	-2852
▁Leg	-2853
aches	-2854
▁Joe	-2855
▁(196	-2856
ouble	-2857
▁Richard	-2858
ference	-2859
▁health	-2860
▁Wil	-2861
▁Lake	-2862
oul	-2863
▁mater	-2864
ification	-2865
arch	-2866
▁coming	-2867
liam	-2868
▁aver	-2869
pite	-2870
▁Mer	-2871
▁Cat	-2872
col	-2873
21	-2874
▁fair	-2875
▁African	-2876
▁rev	-2877
▁municipality	-2878
over	-2879
ograph	-2880
atural	-2881
▁bright	-2882
▁Sports	-2883
unt	-2884
▁yard	-2885
rey	-2886
▁Camp	-2887
▁align	-2888
ederal	-2889
▁effect	-2890
▁shows	-2891
▁God	-2892
▁Ireland	-2893
▁living	-2894
▁makes	-2895
▁episode	-2896
▁suff	-2897
west	-2898
▁neigh	-2899
▁fru	-2900
Hello	-2901
▁doc	-2902
istic	-2903
▁()	-2904
▁Ham	-2905
▁Rock	-2906
▁/	-2907
▁1999	-2908
▁instead	-2909
ership	-2910
▁step	-2911
▁mommy	-2912
ucted	-2913
liament	-2914
▁Frank	-2915
Mom	-2916
▁social	-2917
▁Bur	-2918
abor	-2919
▁review	-2920
▁signific	-2921
▁vocals	-2922
iant	-2923
▁Spanish	-2924
ala	-2925
▁Mel	-2926
▁Zeal	-2927
lement	-2928
▁quickly	-2929
▁Museum	-2930
▁Im	-2931
align	-2932
adium	-2933
▁Russian	-2934
▁#	-2935
▁Public	-2936
▁broken	-2937
▁1970	-2938
TV	-2939
itect	-2940
▁picture	-2941
▁butter	-2942
▁today	-2943
not	-2944
▁board	-2945
▁stage	-2946
▁think	-2947
annel	-2948
▁Early	-2949
▁App	-2950
py	-2951
▁Ev	-2952
hi	-2953
▁although	-2954
▁Zealand	-2955
▁performed	-2956
ecutive	-2957
▁eventually	-2958
▁colors	-2959
10	-2960
▁walking	-2961
▁bi	-2962
▁hung	-2963
ria	-2964
▁Carol	-2965
aid	-2966
▁closer	-2967
▁ap	-2968
▁medal	-2969
▁watched	-2970
▁Virgin	-2971
thlet	-2972
▁Second	-2973
ishing	-2974
imately	-2975
▁Histor	-2976
▁regular	-2977
ena	-2978
ems	-2979
▁Blue	-2980
aries	-2981
▁either	-2982
▁22	-2983
fic	-2984
▁Maj	-2985
▁Academy	-2986
▁Cong	-2987
▁surprise	-2988
▁originally	-2989
▁Che	-2990
▁Smith	-2991
▁construction	-2992
ato	-2993
ota	-2994
▁Later	-2995
▁press	-2996
▁money	-2997
▁Israel	-2998
▁hor	-2999
▁ben	-3000
▁product	-3001
▁alumni	-3002
▁research	-3003
▁okay	-3004
eph	-3005
▁curious	-3006
ands	-3007
▁Chic	-3008
▁Awards	-3009
▁Cons	-3010
ula	-3011
▁Day	-3012
▁secret	-3013
ope	-3014
hood	-3015
▁goal	-3016
▁viol	-3017
▁Department	-3018
ishop	-3019
utes	-3020
▁forg	-3021
atory	-3022
▁sister	-3023
era	-3024
irty	-3025
▁months	-3026
omm	-3027
▁fund	-3028
airs	-3029
olly	-3030
ada	-3031
▁phys	-3032
ethod	-3033
▁includes	-3034
▁Sant	-3035
▁der	-3036
▁1998	-3037
idents	-3038
▁tour	-3039
▁White	-3040
▁acqu	-3041
▁0	-3042
▁sil	-3043
▁sweet	-3044
ector	-3045
▁gold	-3046
▁friendly	-3047
▁companies	-3048
▁appointed	-3049
pped	-3050
▁dev	-3051
▁2,	-3052
ittee	-3053
▁elected	-3054
▁Chin	-3055
▁prin	-3056
▁Africa	-3057
▁deep	-3058
ien	-3059
pro	-3060
leg	-3061
▁185	-3062
ona	-3063
sel	-3064
▁Kar	-3065
igned	-3066
▁anc	-3067
▁Francis	-3068
▁Education	-3069
▁information	-3070
▁establishments	-3071
apt	-3072
▁administ	-3073
▁places	-3074
▁Lu	-3075
itting	-3076
▁Op	-3077
atives	-3078
ugby	-3079
▁Los	-3080
▁Henry	-3081
▁Institute	-3082
▁cal	-3083
▁relig	-3084
chie	-3085
▁Hill	-3086
▁cop	-3087
▁self	-3088
viron	-3089
▁Fore	-3090
atri	-3091
ga	-3092
▁model	-3093
▁arm	-3094
ential	-3095
▁wet	-3096
▁obs	-3097
▁towards	-3098
Wow	-3099
arian	-3100
isl	-3101
action	-3102
▁access	-3103
emor	-3104
istan	-3105
ites	-3106
▁trying	-3107
ving	-3108
▁Victor	-3109
▁23	-3110
▁Def	-3111
back	-3112
▁belong	-3113
▁reported	-3114
asing	-3115
ola	-3116
▁associ	-3117
gress	-3118
round	-3119
▁assist	-3120
▁Penn	-3121
pted	-3122
aine	-3123
▁deg	-3124
▁Men	-3125
▁directed	-3126
ios	-3127
▁killed	-3128
ylv	-3129
ells	-3130
▁doing	-3131
▁ban	-3132
ura	-3133
ergy	-3134
oles	-3135
▁Olympics	-3136
jects	-3137
ability	-3138
▁material	-3139
▁attack	-3140
where	-3141
▁Mass	-3142
tar	-3143
km	-3144
asc	-3145
iation	-3146
▁Scot	-3147
▁gun	-3148
▁lady	-3149
▁visit	-3150
▁featured	-3151
▁ready	-3152
▁184	-3153
▁basketball	-3154
▁:	-3155
▁bott	-3156
▁throughout	-3157
▁broke	-3158
▁course	-3159
▁features	-3160
ports	-3161
▁thin	-3162
▁Oper	-3163
▁wait	-3164
ams	-3165
enced	-3166
▁constit	-3167
mb	-3168
▁remained	-3169
▁above	-3170
▁contract	-3171
▁ow	-3172
▁taking	-3173
▁cool	-3174
▁worry	-3175
iano	-3176
▁respect	-3177
isk	-3178
▁changed	-3179
mon	-3180
▁Squ	-3181
vernor	-3182
ateg	-3183
olk	-3184
▁Two	-3185
▁largest	-3186
▁added	-3187
range	-3188
▁branch	-3189
▁feeling	-3190
acher	-3191
▁journal	-3192
▁parents	-3193
▁pen	-3194
▁study	-3195
▁gone	-3196
▁moment	-3197
▁entire	-3198
aved	-3199
▁Their	-3200
▁Although	-3201
▁Tour	-3202
yr	-3203
elebr	-3204
incip	-3205
▁snow	-3206
▁Mil	-3207
▁police	-3208
25	-3209
▁sees	-3210
▁Boy	-3211
▁average	-3212
▁Win	-3213
▁jud	-3214
FA	-3215
▁Ter	-3216
▁Ol	-3217
▁replaced	-3218
▁fig	-3219
▁quest	-3220
oe	-3221
▁tax	-3222
known	-3223
▁seven	-3224
▁arri	-3225
▁arg	-3226
▁singer	-3227
acked	-3228
▁please	-3229
▁Columb	-3230
▁Dan	-3231
▁Er	-3232
▁1960	-3233
▁helping	-3234
▁words	-3235
▁blocks	-3236
▁swing	-3237
ini	-3238
▁gradu	-3239
▁forces	-3240
▁Chicago	-3241
▁Care	-3242
▁enough	-3243
▁characters	-3244
merc	-3245
▁Dire	-3246
▁tower	-3247
▁leave	-3248
▁buy	-3249
elling	-3250
▁vot	-3251
▁buildings	-3252
▁Star	-3253
▁hungry	-3254
▁Mod	-3255
orning	-3256
II	-3257
▁campaign	-3258
▁esc	-3259
▁("	-3260
▁inj	-3261
▁subsequ	-3262
▁Since	-3263
▁Hon	-3264
▁lo	-3265
aval	-3266
▁Lat	-3267
▁performance	-3268
▁eight	-3269
▁Railway	-3270
▁introduced	-3271
oviet	-3272
▁Class	-3273
▁Saint	-3274
▁Over	-3275
imate	-3276
▁Pan	-3277
ugg	-3278
▁foc	-3279
▁2006,	-3280
▁exist	-3281
medi	-3282
emy	-3283
▁scored	-3284
▁pay	-3285
▁Florida	-3286
▁Most	-3287
▁50	-3288
▁lion	-3289
▁space	-3290
▁Bobo	-3291
▁hear	-3292
pec	-3293
rated	-3294
ining	-3295
▁leading	-3296
oma	-3297
▁Life	-3298
▁castle	-3299
Why	-3300
▁26	-3301
▁Sir	-3302
Americ	-3303
▁2012	-3304
▁Italy	-3305
▁dig	-3306
oming	-3307
eds	-3308
una	-3309
▁finally	-3310
▁staff	-3311
▁instit	-3312
vironment	-3313
▁Ken	-3314
igan	-3315
▁Games	-3316
▁island	-3317
ply	-3318
asy	-3319
▁Mill	-3320
ware	-3321
yd	-3322
elly	-3323
▁bord	-3324
hest	-3325
▁bring	-3326
▁27	-3327
▁Old	-3328
▁teach	-3329
▁Kore	-3330
▁training	-3331
–18	-3332
▁significant	-3333
duction	-3334
▁usually	-3335
▁Emp	-3336
▁Georg	-3337
▁pushed	-3338
ulated	-3339
▁Soon	-3340
▁Spec	-3341
▁capt	-3342
▁Its	-3343
iff	-3344
▁cried	-3345
▁why	-3346
see	-3347
▁Rev	-3348
▁Mur	-3349
▁ill	-3350
▁pos	-3351
▁Minister	-3352
▁Timmy	-3353
▁almost	-3354
icle	-3355
▁dam	-3356
Ch	-3357
fly	-3358
ires	-3359
gg	-3360
▁Mo	-3361
▁paint	-3362
▁parts	-3363
azz	-3364
▁Force	-3365
bye	-3366
▁Love	-3367
▁Gre	-3368
▁Out	-3369
▁spot	-3370
▁lay	-3371
erve	-3372
▁baby	-3373
▁Del	-3374
▁aud	-3375
▁Chinese	-3376
▁Irish	-3377
▁route	-3378
▁takes	-3379
–200	-3380
▁2.	-3381
▁mouth	-3382
othes	-3383
▁railway	-3384
ufact	-3385
▁itself	-3386
,000	-3387
▁understand	-3388
▁designed	-3389
▁Lib	-3390
▁Dis	-3391
▁turns	-3392
uge	-3393
▁Radio	-3394
▁private	-3395
▁28	-3396
▁Atl	-3397
▁Swed	-3398
vert	-3399
uture	-3400
gl	-3401
▁pers	-3402
writ	-3403
▁compos	-3404
▁alone	-3405
▁Under	-3406
▁Government	-3407
oint	-3408
omp	-3409
▁Angeles	-3410
▁Olympic	-3411
▁Wales	-3412
arter	-3413
▁woman	-3414
.)	-3415
▁super	-3416
▁involved	-3417
▁court	-3418
FL	-3419
▁Democr	-3420
▁Land	-3421
▁range	-3422
▁civil	-3423
och	-3424
uct	-3425
▁Ill	-3426
▁drum	-3427
▁Summer	-3428
▁respons	-3429
▁Northern	-3430
▁transfer	-3431
▁transl	-3432
▁window	-3433
▁Person	-3434
")	-3435
40	-3436
▁Paris	-3437
▁Bet	-3438
▁least	-3439
▁wond	-3440
▁Arts	-3441
utch	-3442
▁politician	-3443
▁destroy	-3444
iger	-3445
▁What	-3446
ength	-3447
▁1996	-3448
▁Soviet	-3449
ylvania	-3450
▁spent	-3451
▁rights	-3452
AR	-3453
▁artists	-3454
AS	-3455
22	-3456
▁Sub	-3457
▁Billy	-3458
▁Sk	-3459
ca	-3460
▁Many	-3461
▁If	-3462
uses	-3463
icated	-3464
▁owner	-3465
▁Big	-3466
▁listened	-3467
ersey	-3468
▁climbed	-3469
ested	-3470
urity	-3471
▁mach	-3472
▁Sur	-3473
hab	-3474
▁cup	-3475
▁Mommy	-3476
▁writer	-3477
▁actress	-3478
fort	-3479
zil	-3480
▁female	-3481
▁provided	-3482
▁manager	-3483
▁sem	-3484
▁Official	-3485
11	-3486
road	-3487
eful	-3488
▁wide	-3489
▁vehic	-3490
▁Oh	-3491
heast	-3492
mercial	-3493
lor	-3494
▁Den	-3495
edy	-3496
▁celebr	-3497
rial	-3498
▁sen	-3499
▁looks	-3500
ources	-3501
▁sex	-3502
▁college	-3503
alities	-3504
▁Sun	-3505
istry	-3506
▁Kr	-3507
▁Of	-3508
▁2013	-3509
▁championship	-3510
▁stayed	-3511
▁aircraft	-3512
▁word	-3513
▁carry	-3514
▁Du	-3515
▁media	-3516
▁states	-3517
inary	-3518
▁reve	-3519
▁discover	-3520
▁Count	-3521
▁famous	-3522
...	-3523
▁independent	-3524
▁3:	-3525
▁Wood	-3526
▁mass	-3527
▁center	-3528
illa	-3529
▁Joseph	-3530
▁=	-3531
▁newsp	-3532
▁express	-3533
▁lower	-3534
23	-3535
▁Jun	-3536
ols	-3537
lam	-3538
▁Som	-3539
face	-3540
▁Up	-3541
▁Series	-3542
▁longer	-3543
▁Sa	-3544
▁lake	-3545
▁Virginia	-3546
▁shop	-3547
▁Techn	-3548
▁writers	-3549
▁card	-3550
▁Major	-3551
▁Notes	-3552
ita	-3553
▁duck	-3554
▁placed	-3555
▁Str	-3556
▁Carl	-3557
▁achie	-3558
▁magazine	-3559
▁stories	-3560
▁Gall	-3561
▁explore	-3562
60	-3563
▁Films	-3564
arily	-3565
▁critic	-3566
▁Base	-3567
venue	-3568
▁attr	-3569
▁Battle	-3570
pecially	-3571
▁corn	-3572
ients	-3573
▁hide	-3574
▁via	-3575
▁travel	-3576
▁reading	-3577
▁countries	-3578
aven	-3579
▁Route	-3580
set	-3581
▁ask	-3582
▁dro	-3583
▁primary	-3584
band	-3585
▁surv	-3586
▁heart	-3587
▁Ell	-3588
sylvania	-3589
▁Arab	-3590
▁amaz	-3591
▁Are	-3592
▁cream	-3593
well	-3594
oes	-3595
center	-3596
ulations	-3597
▁glad	-3598
▁means	-3599
come	-3600
▁40	-3601
BA	-3602
ubb	-3603
▁CD	-3604
▁decl	-3605
▁provide	-3606
▁central	-3607
▁pet	-3608
▁occup	-3609
▁Follow	-3610
▁wid	-3611
▁Women	-3612
porary	-3613
▁Sarah	-3614
▁action	-3615
▁deal	-3616
▁bridge	-3617
istics	-3618
▁musical	-3619
▁1997	-3620
like	-3621
American	-3622
ste	-3623
▁Ap	-3624
▁Nov	-3625
▁reb	-3626
▁awarded	-3627
▁actor	-3628
▁Ros	-3629
▁nest	-3630
▁arrived	-3631
▁Little	-3632
. 	-3633
▁Sil	-3634
▁rail	-3635
▁allowed	-3636
▁Ke	-3637
▁seat	-3638
▁Bus	-3639
now	-3640
▁architect	-3641
▁Pennsylvania	-3642
▁Everyone	-3643
lim	-3644
nes	-3645
▁winning	-3646
▁tourn	-3647
▁occur	-3648
▁rather	-3649
▁Brazil	-3650
ys	-3651
asty	-3652
▁coin	-3653
▁type	-3654
▁Cur	-3655
iences	-3656
▁Profess	-3657
▁section	-3658
▁ended	-3659
▁footballers	-3660
▁producer	-3661
▁Di	-3662
rup	-3663
▁score	-3664
▁currently	-3665
▁Exp	-3666
▁diffic	-3667
▁2014	-3668
ript	-3669
ensus	-3670
▁summer	-3671
▁183	-3672
▁pulled	-3673
ux	-3674
▁Mic	-3675
▁Valley	-3676
ension	-3677
▁enjoyed	-3678
▁Martin	-3679
▁1995	-3680
pts	-3681
ero	-3682
▁Av	-3683
▁cloud	-3684
▁(195	-3685
▁Science	-3686
▁ride	-3687
▁Service	-3688
▁sch	-3689
▁cy	-3690
▁document	-3691
ends	-3692
▁frequ	-3693
oub	-3694
▁names	-3695
▁street	-3696
▁wished	-3697
▁circ	-3698
ican	-3699
lier	-3700
ultural	-3701
▁southern	-3702
▁units	-3703
▁anything	-3704
▁Lila	-3705
mond	-3706
▁multip	-3707
▁Youn	-3708
▁Mexico	-3709
han	-3710
▁collect	-3711
sych	-3712
uments	-3713
irit	-3714
▁sure	-3715
▁loss	-3716
iana	-3717
antic	-3718
▁pred	-3719
▁Congress	-3720
▁Commission	-3721
iling	-3722
▁dang	-3723
This	-3724
ples	-3725
▁Mos	-3726
hold	-3727
▁goodbye	-3728
ager	-3729
ping	-3730
▁goals	-3731
▁mur	-3732
▁possible	-3733
▁Jewish	-3734
▁dream	-3735
▁woods	-3736
▁Ha	-3737
ils	-3738
▁29	-3739
▁network	-3740
bur	-3741
outed	-3742
rie	-3743
▁letter	-3744
arn	-3745
▁northern	-3746
▁determ	-3747
▁exam	-3748
▁relationship	-3749
▁Mount	-3750
▁territ	-3751
▁Polit	-3752
▁grew	-3753
▁poet	-3754
anda	-3755
▁especially	-3756
apes	-3757
ingu	-3758
▁hockey	-3759
▁Carolina	-3760
▁1994	-3761
▁force	-3762
▁rad	-3763
based	-3764
▁Finally	-3765
▁31	-3766
▁method	-3767
ube	-3768
ready	-3769
24	-3770
▁path	-3771
▁purch	-3772
▁stated	-3773
▁nearby	-3774
▁Inside	-3775
▁Further	-3776
▁1992	-3777
▁Found	-3778
▁qual	-3779
▁tiny	-3780
▁dry	-3781
▁Fe	-3782
▁Scottish	-3783
mier	-3784
▁Hot	-3785
▁Greek	-3786
oose	-3787
▁bass	-3788
kin	-3789
▁Television	-3790
arp	-3791
▁2007,	-3792
▁whose	-3793
ription	-3794
▁owned	-3795
▁stuck	-3796
▁Parliament	-3797
▁enter	-3798
▁adventure	-3799
▁structure	-3800
ging	-3801
cks	-3802
In	-3803
▁Fort	-3804
▁data	-3805
▁norm	-3806
reme	-3807
▁owl	-3808
▁manufact	-3809
allen	-3810
▁conv	-3811
net	-3812
▁ord	-3813
▁3,	-3814
▁emb	-3815
▁stone	-3816
▁Hel	-3817
▁butterfly	-3818
ulture	-3819
▁tas	-3820
uman	-3821
itiz	-3822
▁morning	-3823
▁broadcast	-3824
▁competition	-3825
▁screen	-3826
▁pictures	-3827
▁Spain	-3828
wor	-3829
clus	-3830
▁Fam	-3831
▁Jud	-3832
▁(193	-3833
▁apple	-3834
▁log	-3835
change	-3836
ribution	-3837
▁approx	-3838
▁kill	-3839
▁previously	-3840
▁2016	-3841
▁singles	-3842
▁practice	-3843
▁surround	-3844
gal	-3845
▁Tri	-3846
▁rob	-3847
▁sus	-3848
shire	-3849
▁Line	-3850
▁whole	-3851
▁tight	-3852
▁culture	-3853
▁Navy	-3854
▁replied	-3855
▁Festival	-3856
▁Empire	-3857
▁fruit	-3858
bridge	-3859
▁maintain	-3860
▁Rel	-3861
▁Sol	-3862
riage	-3863
▁Ant	-3864
▁remembered	-3865
▁operations	-3866
▁bur	-3867
▁artist	-3868
80	-3869
▁Loc	-3870
▁systems	-3871
▁additional	-3872
▁Tommy	-3873
▁towns	-3874
people	-3875
alled	-3876
▁Broad	-3877
▁Jersey	-3878
▁cred	-3879
▁results	-3880
bl	-3881
▁seasons	-3882
ears	-3883
▁Following	-3884
▁writing	-3885
asion	-3886
▁Prot	-3887
▁Bre	-3888
atriate	-3889
▁Bow	-3890
▁beginning	-3891
▁ancient	-3892
▁ur	-3893
▁syn	-3894
▁except	-3895
▁Po	-3896
▁Mot	-3897
▁dirty	-3898
▁carried	-3899
ón	-3900
▁wrong	-3901
▁baseball	-3902
uts	-3903
bers	-3904
▁pink	-3905
embly	-3906
hire	-3907
▁imm	-3908
▁regard	-3909
▁Transport	-3910
▁Times	-3911
▁nomin	-3912
▁mention	-3913
70	-3914
aisy	-3915
itan	-3916
kins	-3917
0,000	-3918
▁2015	-3919
▁scary	-3920
▁fourth	-3921
▁studio	-3922
▁complete	-3923
▁pieces	-3924
▁shot	-3925
▁Southern	-3926
▁Cross	-3927
▁flying	-3928
▁Pac	-3929
▁News	-3930
aled	-3931
ests	-3932
▁Pak	-3933
▁comes	-3934
sis	-3935
▁clear	-3936
▁princip	-3937
echan	-3938
▁really	-3939
▁McC	-3940
ancy	-3941
ender	-3942
▁rate	-3943
▁report	-3944
bon	-3945
▁fit	-3946
▁capital	-3947
▁Lord	-3948
▁prison	-3949
▁defeated	-3950
15	-3951
▁Columbia	-3952
▁Cle	-3953
▁uses	-3954
▁coast	-3955
▁Inc	-3956
stra	-3957
selves	-3958
▁edition	-3959
▁unit	-3960
uals	-3961
 –	-3962
▁Gar	-3963
▁Ohio	-3964
har	-3965
urb	-3966
▁analy	-3967
inent	-3968
▁Middle	-3969
▁battle	-3970
▁highest	-3971
isa	-3972
▁Lee	-3973
▁Top	-3974
▁instr	-3975
ua	-3976
bury	-3977
gen	-3978
▁Province	-3979
gent	-3980
▁minor	-3981
▁doctor	-3982
▁wise	-3983
▁Civil	-3984
▁clothes	-3985
▁piece	-3986
Oh	-3987
ributed	-3988
▁centre	-3989
den	-3990
ati	-3991
orpor	-3992
▁Haw	-3993
▁pup	-3994
▁wants	-3995
▁dropped	-3996
▁covered	-3997
▁complet	-3998
▁fif	-3999
▁size	-4000
▁tracks	-4001
▁2008,	-4002
▁industry	-4003
▁Young	-4004
▁teacher	-4005
▁function	-4006
met	-4007
ctions	-4008
inners	-4009
▁0.	-4010
▁Bul	-4011
abbed	-4012
▁Long	-4013
▁earlier	-4014
ulty	-4015
▁mission	-4016
▁plat	-4017
▁already	-4018
▁Wal	-4019
▁trade	-4020
dis	-4021
ables	-4022
▁location	-4023
ecess	-4024
▁throw	-4025
▁opening	-4026
▁Book	-4027
▁Jul	-4028
▁Tre	-4029
▁scient	-4030
isions	-4031
eff	-4032
ipped	-4033
▁science	-4034
▁Scotland	-4035
ette	-4036
▁Cro	-4037
▁traditional	-4038
▁degree	-4039
▁active	-4040
▁Theatre	-4041
▁organiz	-4042
▁according	-4043
▁du	-4044
uzz	-4045
▁anti	-4046
▁passed	-4047
ta	-4048
▁poor	-4049
▁noticed	-4050
▁investig	-4051
ss	-4052
oir	-4053
▁houses	-4054
▁Dev	-4055
▁insp	-4056
▁middle	-4057
rol	-4058
▁foot	-4059
▁leader	-4060
▁Matt	-4061
aph	-4062
▁1950	-4063
▁Bor	-4064
▁collection	-4065
▁Rh	-4066
▁news	-4067
▁movie	-4068
astic	-4069
awa	-4070
roll	-4071
▁Bas	-4072
▁movement	-4073
ić	-4074
andy	-4075
ancial	-4076
vention	-4077
▁whom	-4078
▁threw	-4079
▁themselves	-4080
ulf	-4081
▁2009,	-4082
–201	-4083
▁Post	-4084
ques	-4085
▁command	-4086
▁Ca	-4087
▁Mat	-4088
7),	-4089
▁appearance	-4090
▁student	-4091
▁disp	-4092
▁Jones	-4093
▁animal	-4094
▁commercial	-4095
12	-4096
▁Ver	-4097
▁disapp	-4098
▁Buddy	-4099
▁!	-4100
▁motor	-4101
▁Elect	-4102
▁Dutch	-4103
▁neg	-4104
▁division	-4105
13	-4106
umber	-4107
▁Mike	-4108
▁leaving	-4109
▁Board	-4110
▁thus	-4111
▁Kent	-4112
with	-4113
▁1991	-4114
utions	-4115
▁shouted	-4116
▁Wild	-4117
▁thank	-4118
▁End	-4119
oid	-4120
▁bath	-4121
▁getting	-4122
▁natural	-4123
▁Da	-4124
▁certain	-4125
▁Committee	-4126
▁future	-4127
vey	-4128
▁wild	-4129
▁Game	-4130
▁lesson	-4131
8),	-4132
▁Fer	-4133
▁Secret	-4134
6),	-4135
▁Good	-4136
▁FC	-4137
▁attended	-4138
rief	-4139
▁bigger	-4140
uty	-4141
IS	-4142
NA	-4143
adron	-4144
▁Medal	-4145
▁Ur	-4146
▁Edward	-4147
▁text	-4148
▁colorful	-4149
▁organization	-4150
▁Career	-4151
▁cannot	-4152
cher	-4153
▁III	-4154
▁den	-4155
▁Team	-4156
▁Build	-4157
▁problem	-4158
▁sum	-4159
▁arms	-4160
▁required	-4161
attal	-4162
▁grabbed	-4163
▁Tem	-4164
▁academ	-4165
▁shoot	-4166
▁Prince	-4167
adel	-4168
▁More	-4169
▁seem	-4170
▁Engine	-4171
inet	-4172
▁Water	-4173
▁lic	-4174
house	-4175
ez	-4176
unched	-4177
va	-4178
▁length	-4179
gar	-4180
▁someone	-4181
▁victory	-4182
wan	-4183
eks	-4184
▁pil	-4185
▁1993	-4186
▁listed	-4187
▁offered	-4188
▁sal	-4189
▁waited	-4190
sw	-4191
▁matches	-4192
▁generally	-4193
▁everything	-4194
▁Back	-4195
▁pan	-4196
inger	-4197
▁schol	-4198
May	-4199
▁complex	-4200
▁clapped	-4201
▁standard	-4202
irm	-4203
▁2010,	-4204
▁difficult	-4205
▁individual	-4206
rang	-4207
▁issues	-4208
ricket	-4209
▁hours	-4210
▁dead	-4211
ections	-4212
▁Championships	-4213
▁neighbor	-4214
▁emp	-4215
▁numerous	-4216
4),	-4217
▁Net	-4218
▁Web	-4219
▁Members	-4220
iy	-4221
rary	-4222
ervation	-4223
▁attempt	-4224
▁beach	-4225
apers	-4226
▁brown	-4227
▁likes	-4228
▁footballer	-4229
ja	-4230
kr	-4231
▁NY	-4232
oston	-4233
ampion	-4234
▁waved	-4235
Do	-4236
2),	-4237
▁contains	-4238
▁ge	-4239
▁create	-4240
▁4:	-4241
▁Jen	-4242
▁army	-4243
itation	-4244
▁hospital	-4245
erved	-4246
▁clubs	-4247
▁filled	-4248
▁related	-4249
▁und	-4250
▁ver	-4251
▁Ox	-4252
ww	-4253
ansas	-4254
▁activities	-4255
▁exhib	-4256
▁operated	-4257
▁Time	-4258
▁Ray	-4259
▁Charl	-4260
▁chief	-4261
▁indic	-4262
▁Dar	-4263
▁Daisy	-4264
▁Liber	-4265
▁below	-4266
inct	-4267
state	-4268
ishes	-4269
ibility	-4270
aded	-4271
▁transport	-4272
▁herself	-4273
ips	-4274
ees	-4275
igg	-4276
▁hom	-4277
▁immedi	-4278
▁Vill	-4279
ora	-4280
▁fa	-4281
▁bank	-4282
▁leaf	-4283
▁System	-4284
cel	-4285
▁Inf	-4286
▁Britain	-4287
▁programs	-4288
▁Station	-4289
▁tournament	-4290
▁Sat	-4291
▁2011,	-4292
▁Track	-4293
▁else	-4294
▁ven	-4295
▁blew	-4296
▁increased	-4297
▁Pen	-4298
▁noted	-4299
rem	-4300
▁Georgia	-4301
ugu	-4302
▁Ep	-4303
▁abs	-4304
▁Russia	-4305
▁associated	-4306
▁appears	-4307
▁Albert	-4308
▁Eastern	-4309
▁perfect	-4310
ustom	-4311
▁discuss	-4312
▁Michigan	-4313
▁Wind	-4314
▁Queen	-4315
▁entered	-4316
het	-4317
▁stars	-4318
▁Health	-4319
▁Gal	-4320
▁appearances	-4321
light	-4322
▁mostly	-4323
▁3.	-4324
▁2018	-4325
war	-4326
teen	-4327
▁rocks	-4328
▁tro	-4329
▁Ba	-4330
▁consist	-4331
▁Conn	-4332
5),	-4333
▁caused	-4334
iga	-4335
▁(194	-4336
▁emer	-4337
▁actors	-4338
▁separate	-4339
▁singing	-4340
▁4,	-4341
▁driver	-4342
▁prior	-4343
29	-4344
▁monster	-4345
▁becoming	-4346
▁interview	-4347
▁approximately	-4348
▁minutes	-4349
▁adop	-4350
▁phil	-4351
▁2017	-4352
mann	-4353
▁university	-4354
▁mine	-4355
Okay	-4356
▁lines	-4357
▁Athlet	-4358
▁applic	-4359
ronic	-4360
▁Rail	-4361
ellig	-4362
▁Dun	-4363
ogether	-4364
5%	-4365
ify	-4366
▁Child	-4367
▁religious	-4368
▁BC	-4369
▁Mid	-4370
▁recording	-4371
▁purp	-4372
▁Det	-4373
▁remains	-4374
ias	-4375
▁candid	-4376
▁Research	-4377
gu	-4378
ucle	-4379
▁cart	-4380
27	-4381
▁Military	-4382
▁fighting	-4383
enth	-4384
▁Social	-4385
▁holding	-4386
inois	-4387
▁prob	-4388
▁officer	-4389
▁i	-4390
▁Sus	-4391
▁Stan	-4392
▁Chief	-4393
▁caught	-4394
▁quiet	-4395
▁changes	-4396
▁Girl	-4397
▁gives	-4398
▁Bern	-4399
▁Boston	-4400
):	-4401
ram	-4402
▁hur	-4403
▁trib	-4404
▁Night	-4405
▁western	-4406
▁oil	-4407
▁mountain	-4408
▁issue	-4409
▁status	-4410
ira	-4411
▁rare	-4412
▁remain	-4413
▁feature	-4414
▁plants	-4415
zer	-4416
▁bowl	-4417
▁sequ	-4418
▁Special	-4419
18	-4420
SA	-4421
▁Head	-4422
▁ded	-4423
▁fort	-4424
▁museum	-4425
tegr	-4426
ucks	-4427
▁egg	-4428
▁believed	-4429
cles	-4430
▁Coast	-4431
▁USA	-4432
▁environment	-4433
▁speed	-4434
▁legal	-4435
ocked	-4436
▁date	-4437
▁murder	-4438
90	-4439
▁wel	-4440
ipe	-4441
▁Islam	-4442
▁drive	-4443
▁forced	-4444
▁limited	-4445
alog	-4446
▁wag	-4447
▁horse	-4448
3),	-4449
hing	-4450
track	-4451
▁everywhere	-4452
▁Death	-4453
▁ju	-4454
▁delic	-4455
▁faster	-4456
left	-4457
▁altern	-4458
▁Philipp	-4459
nam	-4460
▁Bal	-4461
▁da	-4462
mark	-4463
▁1989	-4464
▁BBC	-4465
▁Highway	-4466
▁Illinois	-4467
velopment	-4468
▁2005,	-4469
orrow	-4470
▁pig	-4471
26	-4472
▁terms	-4473
▁Tam	-4474
▁numbers	-4475
▁retired	-4476
▁Avenue	-4477
▁Francisco	-4478
▁Show	-4479
▁agre	-4480
.”	-4481
28	-4482
▁Wall	-4483
▁citiz	-4484
▁saf	-4485
▁Earth	-4486
wa	-4487
▁colon	-4488
anning	-4489
▁fur	-4490
osing	-4491
▁smaller	-4492
▁property	-4493
ipl	-4494
▁decision	-4495
▁multiple	-4496
raf	-4497
emorial	-4498
▁Polish	-4499
imin	-4500
▁lov	-4501
▁2006.	-4502
▁Step	-4503
onse	-4504
▁(20	-4505
▁Iran	-4506
▁sharing	-4507
▁hopped	-4508
isher	-4509
▁mem	-4510
▁asks	-4511
▁storm	-4512
▁bought	-4513
▁referred	-4514
▁Latin	-4515
▁Syd	-4516
mitted	-4517
▁1920	-4518
NE	-4519
1),	-4520
gian	-4521
quar	-4522
aser	-4523
color	-4524
▁push	-4525
burgh	-4526
▁Four	-4527
▁Dog	-4528
▁Gen	-4529
▁libr	-4530
icine	-4531
▁Open	-4532
▁Mu	-4533
14	-4534
▁larger	-4535
▁prof	-4536
▁Tenn	-4537
▁shown	-4538
tainment	-4539
uries	-4540
▁nature	-4541
▁Lab	-4542
▁goes	-4543
▁protect	-4544
antry	-4545
▁meeting	-4546
etts	-4547
▁Jes	-4548
▁sang	-4549
▁studies	-4550
anguages	-4551
RA	-4552
aka	-4553
▁association	-4554
ancing	-4555
▁machine	-4556
▁ens	-4557
ements	-4558
▁Argent	-4559
▁lif	-4560
ambig	-4561
▁cases	-4562
▁computer	-4563
▁dise	-4564
▁label	-4565
▁starting	-4566
▁Way	-4567
▁search	-4568
-3	-4569
eed	-4570
▁Home	-4571
isters	-4572
obile	-4573
osop	-4574
▁Bank	-4575
▁believe	-4576
ading	-4577
itzer	-4578
▁smart	-4579
▁Rog	-4580
▁nine	-4581
▁value	-4582
▁Hor	-4583
▁page	-4584
▁editor	-4585
▁newspaper	-4586
▁Andrew	-4587
▁Jac	-4588
▁Asia	-4589
▁Jr	-4590
achus	-4591
▁swam	-4592
▁2012,	-4593
▁initially	-4594
▁mic	-4595
▁Album	-4596
▁Centre	-4597
▁dinner	-4598
▁Pacific	-4599
hester	-4600
emporary	-4601
▁bal	-4602
uated	-4603
▁succeed	-4604
▁problems	-4605
▁shel	-4606
▁true	-4607
▁Field	-4608
▁mixed	-4609
▁federal	-4610
▁launched	-4611
▁weeks	-4612
▁nation	-4613
ava	-4614
▁Jeff	-4615
▁susp	-4616
▁management	-4617
▁Ul	-4618
▁subsequently	-4619
▁pal	-4620
ication	-4621
box	-4622
▁energy	-4623
▁prevent	-4624
▁commission	-4625
▁Steve	-4626
ador	-4627
mission	-4628
▁Johnson	-4629
ela	-4630
▁Const	-4631
▁majority	-4632
▁1988	-4633
iance	-4634
▁Williams	-4635
▁evidence	-4636
ambiguation	-4637
using	-4638
Ar	-4639
▁Sydney	-4640
▁senior	-4641
▁increase	-4642
adow	-4643
16	-4644
▁Despite	-4645
17	-4646
▁union	-4647
▁constr	-4648
▁suggest	-4649
▁consider	-4650
cean	-4651
▁serving	-4652
omy	-4653
yard	-4654
▁weap	-4655
▁managed	-4656
▁selected	-4657
onic	-4658
▁Hung	-4659
▁realized	-4660
▁reduc	-4661
▁brief	-4662
▁annual	-4663
osa	-4664
▁amb	-4665
▁bike	-4666
▁Enter	-4667
▁cell	-4668
erful	-4669
▁Jean	-4670
▁wing	-4671
▁Baseball	-4672
▁bound	-4673
▁Corps	-4674
▁episodes	-4675
▁plays	-4676
▁dangerous	-4677
BS	-4678
sk	-4679
adelph	-4680
▁Three	-4681
tario	-4682
▁Sund	-4683
▁Organ	-4684
▁Corpor	-4685
▁threat	-4686
▁Van	-4687
▁metal	-4688
▁foreign	-4689
▁Ban	-4690
▁Hind	-4691
rid	-4692
oday	-4693
▁ring	-4694
▁Library	-4695
▁meaning	-4696
▁Les	-4697
▁wings	-4698
▁Econom	-4699
▁operation	-4700
▁)	-4701
idden	-4702
▁finish	-4703
▁Both	-4704
▁tar	-4705
▁flag	-4706
▁platform	-4707
▁Ret	-4708
isation	-4709
▁spread	-4710
▁Alexander	-4711
ighter	-4712
yan	-4713
emon	-4714
adelphia	-4715
▁block	-4716
▁Corn	-4717
▁pack	-4718
rot	-4719
▁Ari	-4720
ima	-4721
iser	-4722
onto	-4723
▁Journal	-4724
inem	-4725
chestra	-4726
disambiguation	-4727
▁missing	-4728
▁marriage	-4729
▁discovered	-4730
ession	-4731
ooper	-4732
▁structures	-4733
▁(17	-4734
CC	-4735
▁silver	-4736
▁moving	-4737
▁stadium	-4738
ho	-4739
▁Ram	-4740
▁percent	-4741
▁5,	-4742
achusetts	-4743
▁speak	-4744
▁object	-4745
▁eastern	-4746
▁tells	-4747
attalion	-4748
omet	-4749
stein	-4750
▁chap	-4751
▁question	-4752
obal	-4753
▁comedy	-4754
no	-4755
▁saying	-4756
▁Creek	-4757
▁taught	-4758
iring	-4759
▁crew	-4760
▁Ontario	-4761
host	-4762
▁rat	-4763
▁Band	-4764
▁failed	-4765
▁promised	-4766
down	-4767
▁Ven	-4768
ications	-4769
▁Die	-4770
osaur	-4771
▁mist	-4772
▁mechan	-4773
yer	-4774
▁balloon	-4775
plement	-4776
▁represented	-4777
mas	-4778
ails	-4779
rich	-4780
▁unknown	-4781
▁Sea	-4782
wich	-4783
▁plane	-4784
add	-4785
▁personnel	-4786
▁county	-4787
▁format	-4788
language	-4789
▁Massachusetts	-4790
▁Books	-4791
▁particularly	-4792
▁autom	-4793
▁raised	-4794
▁Another	-4795
▁Together	-4796
▁acquired	-4797
▁personal	-4798
alls	-4799
▁Add	-4800
▁onto	-4801
▁economic	-4802
▁van	-4803
▁wish	-4804
ares	-4805
–199	-4806
▁claimed	-4807
town	-4808
▁variety	-4809
▁FI	-4810
▁Dou	-4811
oli	-4812
▁burn	-4813
▁Card	-4814
▁Cy	-4815
▁Light	-4816
▁gift	-4817
▁Governor	-4818
▁forms	-4819
▁danced	-4820
▁supported	-4821
–9	-4822
▁Cub	-4823
riving	-4824
▁talked	-4825
▁medical	-4826
▁Fox	-4827
▁hero	-4828
▁fox	-4829
▁subject	-4830
imi	-4831
▁Minn	-4832
▁council	-4833
encies	-4834
ilies	-4835
▁2013,	-4836
▁Bridge	-4837
▁historical	-4838
▁forgot	-4839
ropol	-4840
▁adj	-4841
imum	-4842
acted	-4843
ko	-4844
bow	-4845
uce	-4846
▁Philadelphia	-4847
▁fle	-4848
▁Songs	-4849
▁happen	-4850
HL	-4851
▁elev	-4852
▁lives	-4853
▁ships	-4854
▁records	-4855
uing	-4856
ricts	-4857
▁remaining	-4858
izing	-4859
▁sail	-4860
▁Anton	-4861
▁drink	-4862
▁yet	-4863
aked	-4864
ores	-4865
▁Dani	-4866
▁trust	-4867
▁Jerry	-4868
▁Lew	-4869
▁1984	-4870
▁theory	-4871
▁yes	-4872
▁improve	-4873
aya	-4874
▁Oxford	-4875
ounds	-4876
win	-4877
▁Conference	-4878
▁Far	-4879
▁mind	-4880
▁Cop	-4881
An	-4882
resp	-4883
▁Your	-4884
▁require	-4885
ipment	-4886
▁Mir	-4887
efore	-4888
▁troops	-4889
roc	-4890
▁shell	-4891
▁source	-4892
▁Assembly	-4893
bec	-4894
▁Chris	-4895
▁Common	-4896
▁latter	-4897
▁2004,	-4898
▁Airport	-4899
▁Lar	-4900
▁Arm	-4901
ental	-4902
▁serve	-4903
▁chem	-4904
AT	-4905
cend	-4906
▁Main	-4907
heim	-4908
▁administr	-4909
▁gran	-4910
▁residents	-4911
▁Bell	-4912
thur	-4913
▁lack	-4914
uan	-4915
▁write	-4916
amber	-4917
▁Victoria	-4918
atively	-4919
ety	-4920
hew	-4921
▁gas	-4922
▁Democratic	-4923
▁2:	-4924
▁Bib	-4925
▁extended	-4926
ouri	-4927
▁piano	-4928
▁1987	-4929
peror	-4930
ba	-4931
▁Jer	-4932
▁Muslim	-4933
▁eld	-4934
▁eating	-4935
▁km	-4936
rival	-4937
▁Municip	-4938
oses	-4939
▁dom	-4940
ously	-4941
▁arrest	-4942
▁recent	-4943
▁Cz	-4944
▁unique	-4945
▁Ly	-4946
9),	-4947
▁Sand	-4948
▁obtain	-4949
▁ess	-4950
amm	-4951
▁Bon	-4952
▁cities	-4953
▁carefully	-4954
▁Jon	-4955
abeth	-4956
▁feet	-4957
▁mail	-4958
▁Director	-4959
▁financial	-4960
eddy	-4961
▁Fre	-4962
▁cookies	-4963
▁display	-4964
▁communities	-4965
▁surface	-4966
▁Coll	-4967
▁comment	-4968
▁60	-4969
▁Ukr	-4970
▁Historic	-4971
▁specific	-4972
asts	-4973
▁Development	-4974
▁Int	-4975
▁Mas	-4976
▁Son	-4977
▁Winter	-4978
▁rules	-4979
▁studied	-4980
▁tun	-4981
▁affili	-4982
sen	-4983
▁MP	-4984
acts	-4985
▁Bird	-4986
▁organized	-4987
▁presented	-4988
▁1986	-4989
▁Kong	-4990
▁coup	-4991
▁province	-4992
45	-4993
▁snake	-4994
▁Family	-4995
▁worried	-4996
▁response	-4997
zz	-4998
▁youn	-4999
▁Bad	-5000
hol	-5001
▁orange	-5002
ye	-5003
▁soldiers	-5004
AF	-5005
▁mud	-5006
▁Islands	-5007
▁Ash	-5008
ederation	-5009
▁channel	-5010
▁provides	-5011
can	-5012
ression	-5013
▁sitting	-5014
▁symb	-5015
▁Ok	-5016
▁double	-5017
▁giving	-5018
aped	-5019
▁Raj	-5020
▁capac	-5021
▁Tra	-5022
▁mainly	-5023
ledge	-5024
▁trains	-5025
▁Jackson	-5026
enty	-5027
emeter	-5028
ooth	-5029
▁decor	-5030
▁mentioned	-5031
▁jun	-5032
▁Writ	-5033
rovers	-5034
▁Univers	-5035
▁assistant	-5036
%)	-5037
ker	-5038
▁Jimmy	-5039
hens	-5040
▁Treat	-5041
▁Pakistan	-5042
▁Live	-5043
▁Os	-5044
▁descent	-5045
▁Represent	-5046
▁technology	-5047
uten	-5048
reng	-5049
▁measure	-5050
▁secondary	-5051
▁1985	-5052
▁individuals	-5053
▁rule	-5054
▁Toronto	-5055
▁Office	-5056
▁tele	-5057
imated	-5058
▁renamed	-5059
rics	-5060
▁powerful	-5061
▁shr	-5062
▁Viet	-5063
▁Mah	-5064
▁spring	-5065
gcolor	-5066
▁policy	-5067
▁experience	-5068
▁Tony	-5069
▁inhab	-5070
ties	-5071
▁map	-5072
▁temper	-5073
▁soup	-5074
▁Video	-5075
▁Notable	-5076
▁diss	-5077
▁officers	-5078
▁Maybe	-5079
▁cause	-5080
▁rugby	-5081
▁border	-5082
rell	-5083
▁cam	-5084
▁Queens	-5085
idae	-5086
entle	-5087
▁Santa	-5088
▁overall	-5089
▁Berlin	-5090
▁novels	-5091
▁account	-5092
▁2014,	-5093
▁legisl	-5094
▁Biography	-5095
▁cloth	-5096
▁collabor	-5097
▁composed	-5098
▁languages	-5099
▁Hun	-5100
▁inn	-5101
▁nearly	-5102
▁Disc	-5103
▁Wilson	-5104
▁consists	-5105
▁Chap	-5106
agement	-5107
bre	-5108
ologist	-5109
▁prep	-5110
▁Down	-5111
▁figure	-5112
▁Ve	-5113
▁bite	-5114
▁split	-5115
▁concept	-5116
▁Tal	-5117
bourne	-5118
▁glass	-5119
▁plans	-5120
▁Swiss	-5121
▁custom	-5122
▁1983	-5123
▁Origin	-5124
▁string	-5125
esota	-5126
▁spirit	-5127
▁quarter	-5128
▁mil	-5129
ourney	-5130
ictional	-5131
rov	-5132
▁mum	-5133
writer	-5134
▁normal	-5135
iform	-5136
▁Conf	-5137
▁blank	-5138
▁Aut	-5139
▁Ott	-5140
▁Bang	-5141
▁nap	-5142
▁workers	-5143
ressed	-5144
▁inters	-5145
▁proposed	-5146
▁Power	-5147
▁Eliz	-5148
▁Foundation	-5149
▁target	-5150
▁pretend	-5151
▁hang	-5152
▁directly	-5153
iverse	-5154
▁£	-5155
▁removed	-5156
gypt	-5157
▁smiles	-5158
▁Before	-5159
▁organizations	-5160
▁Tay	-5161
▁neck	-5162
▁blood	-5163
actions	-5164
rance	-5165
▁direction	-5166
▁Guard	-5167
▁forward	-5168
▁Justice	-5169
▁despite	-5170
onia	-5171
ih	-5172
▁(3	-5173
▁Publ	-5174
▁fairy	-5175
▁master	-5176
▁Community	-5177
▁1930	-5178
usband	-5179
▁Forest	-5180
▁Minnesota	-5181
ully	-5182
ashed	-5183
▁pudd	-5184
▁Also	-5185
▁programming	-5186
rupt	-5187
▁Wat	-5188
active	-5189
▁opt	-5190
▁bee	-5191
▁coat	-5192
▁trip	-5193
▁winner	-5194
aging	-5195
▁agric	-5196
▁meas	-5197
AC	-5198
▁Color	-5199
▁destroyed	-5200
▁colle	-5201
án	-5202
ective	-5203
▁Regiment	-5204
▁Rem	-5205
▁Ron	-5206
reedom	-5207
▁rough	-5208
▁featuring	-5209
▁drama	-5210
▁Marine	-5211
▁pattern	-5212
▁influence	-5213
▁4.	-5214
inals	-5215
▁weak	-5216
▁Today	-5217
▁older	-5218
▁musicians	-5219
▁mad	-5220
▁article	-5221
▁Simon	-5222
▁talking	-5223
▁native	-5224
▁Program	-5225
▁Su	-5226
▁accident	-5227
▁responsible	-5228
▁Emma	-5229
▁180	-5230
bit	-5231
uted	-5232
▁Czech	-5233
▁Prize	-5234
▁Personal	-5235
▁6,	-5236
▁reason	-5237
andon	-5238
▁purple	-5239
▁boun	-5240
▁pill	-5241
▁Cir	-5242
▁electric	-5243
▁1979	-5244
▁corner	-5245
▁Der	-5246
▁equipment	-5247
umed	-5248
▁wore	-5249
▁gather	-5250
▁deliver	-5251
▁solo	-5252
Al	-5253
▁Anth	-5254
▁Federal	-5255
rec	-5256
establ	-5257
▁elements	-5258
ses	-5259
▁traff	-5260
▁Mountain	-5261
osl	-5262
▁Serb	-5263
▁confl	-5264
▁1976	-5265
▁Fair	-5266
▁fixed	-5267
▁concern	-5268
▁tow	-5269
▁facilities	-5270
▁7,	-5271
izes	-5272
▁jar	-5273
▁Premier	-5274
wide	-5275
▁500	-5276
▁psych	-5277
▁earned	-5278
▁chart	-5279
▁Lady	-5280
▁highway	-5281
▁expatriate	-5282
▁rolled	-5283
▁square	-5284
▁suit	-5285
▁silly	-5286
▁serious	-5287
▁primarily	-5288
▁bell	-5289
stone	-5290
▁Gallery	-5291
▁becomes	-5292
▁huge	-5293
▁bgcolor	-5294
–3	-5295
▁ly	-5296
▁immediately	-5297
▁Kir	-5298
▁nothing	-5299
ito	-5300
orporated	-5301
▁acce	-5302
mm	-5303
pet	-5304
▁Bec	-5305
itage	-5306
//	-5307
▁Rod	-5308
▁ending	-5309
▁cow	-5310
);	-5311
ece	-5312
ims	-5313
▁2015,	-5314
emetery	-5315
▁conver	-5316
▁Like	-5317
▁Brig	-5318
▁citizens	-5319
arrow	-5320
▁wave	-5321
▁restaur	-5322
▁constructed	-5323
▁Inst	-5324
▁domin	-5325
▁conditions	-5326
edd	-5327
▁regional	-5328
org	-5329
icted	-5330
▁continue	-5331
▁follows	-5332
onze	-5333
▁nose	-5334
▁Republican	-5335
▁Att	-5336
▁Kim	-5337
▁parish	-5338
▁Bh	-5339
▁af	-5340
▁Corporation	-5341
▁drug	-5342
▁levels	-5343
ione	-5344
▁bottle	-5345
quarters	-5346
▁categ	-5347
▁sector	-5348
▁strugg	-5349
▁dyn	-5350
▁ash	-5351
mir	-5352
onely	-5353
▁Media	-5354
▁counter	-5355
-4	-5356
▁Human	-5357
▁upper	-5358
▁whether	-5359
▁Fire	-5360
▁repe	-5361
▁hoped	-5362
▁tom	-5363
▁1982	-5364
▁mill	-5365
▁captain	-5366
▁cab	-5367
▁likely	-5368
▁Form	-5369
▁Lisa	-5370
▁Egypt	-5371
▁meant	-5372
▁Castle	-5373
▁save	-5374
▁1981	-5375
▁Barb	-5376
▁Stat	-5377
▁distance	-5378
▁2017,	-5379
▁divided	-5380
▁Ak	-5381
greg	-5382
▁Maria	-5383
▁strange	-5384
▁feed	-5385
▁Ta	-5386
▁35	-5387
igen	-5388
▁fear	-5389
▁1974	-5390
▁matter	-5391
ennis	-5392
ilton	-5393
undred	-5394
▁Brian	-5395
▁titles	-5396
▁crying	-5397
▁su	-5398
▁territory	-5399
▁pra	-5400
▁pool	-5401
▁Supreme	-5402
▁Hospital	-5403
mad	-5404
▁census	-5405
%.	-5406
oto	-5407
▁increasing	-5408
▁Andy	-5409
▁Stadium	-5410
▁listing	-5411
▁ham	-5412
▁Beach	-5413
ali	-5414
▁sched	-5415
▁Hy	-5416
▁farmer	-5417
▁issued	-5418
▁Brother	-5419
▁planned	-5420
▁Turk	-5421
–2	-5422
▁Business	-5423
▁Est	-5424
▁integr	-5425
▁resist	-5426
▁transferred	-5427
▁notable	-5428
ads	-5429
resh	-5430
oured	-5431
▁Administ	-5432
▁Each	-5433
▁Hong	-5434
vin	-5435
▁progress	-5436
ouch	-5437
▁Nether	-5438
▁welcome	-5439
essee	-5440
▁myster	-5441
amin	-5442
Maybe	-5443
ocese	-5444
oa	-5445
▁benef	-5446
ype	-5447
ji	-5448
▁era	-5449
▁har	-5450
▁stream	-5451
▁patient	-5452
▁seek	-5453
▁Greg	-5454
"|	-5455
itude	-5456
▁2016,	-5457
▁Lim	-5458
▁thr	-5459
▁administration	-5460
enes	-5461
▁Rome	-5462
uer	-5463
▁streng	-5464
▁revealed	-5465
▁initial	-5466
▁accept	-5467
▁cultural	-5468
alle	-5469
rants	-5470
▁sounds	-5471
▁Ira	-5472
▁von	-5473
▁Stand	-5474
▁families	-5475
▁amazing	-5476
▁Korea	-5477
▁youth	-5478
oons	-5479
▁Stephen	-5480
▁mel	-5481
▁Prim	-5482
▁awards	-5483
▁honor	-5484
▁pun	-5485
▁1978	-5486
iable	-5487
▁hall	-5488
ropolitan	-5489
▁Revolution	-5490
▁Abb	-5491
▁crab	-5492
▁fold	-5493
icles	-5494
▁Pers	-5495
▁candy	-5496
ules	-5497
▁necess	-5498
▁capacity	-5499
▁bomb	-5500
▁Molly	-5501
ID	-5502
ii	-5503
ners	-5504
▁executive	-5505
bu	-5506
▁Bat	-5507
ocket	-5508
▁bench	-5509
▁Spring	-5510
▁temple	-5511
▁settlement	-5512
oh	-5513
inson	-5514
class	-5515
akh	-5516
▁Gra	-5517
▁encour	-5518
▁ple	-5519
▁Baron	-5520
▁shoes	-5521
outs	-5522
mes	-5523
▁harm	-5524
▁Arthur	-5525
iders	-5526
itled	-5527
itors	-5528
▁hosted	-5529
▁2003,	-5530
▁drums	-5531
▁society	-5532
▁alongside	-5533
respond	-5534
▁thinks	-5535
▁continues	-5536
van	-5537
▁basis	-5538
▁termin	-5539
▁effects	-5540
gers	-5541
▁8,	-5542
▁Review	-5543
▁12,	-5544
▁resc	-5545
▁husband	-5546
da	-5547
://	-5548
▁Rose	-5549
ifying	-5550
▁Asian	-5551
▁Bishop	-5552
ortun	-5553
▁online	-5554
▁products	-5555
▁Ball	-5556
eman	-5557
▁Leo	-5558
▁1940	-5559
▁Works	-5560
▁scene	-5561
pa	-5562
ras	-5563
ographic	-5564
▁birthday	-5565
▁Tennessee	-5566
ns	-5567
▁stret	-5568
▁perman	-5569
▁Swedish	-5570
incial	-5571
ulpt	-5572
▁Dave	-5573
▁Junior	-5574
▁Ah	-5575
▁Poland	-5576
▁defeat	-5577
▁Elizabeth	-5578
▁professor	-5579
osh	-5580
▁eas	-5581
▁Country	-5582
anta	-5583
▁Mimi	-5584
▁Master	-5585
itzerland	-5586
▁15,	-5587
▁1972	-5588
▁Lewis	-5589
▁officially	-5590
▁dedicated	-5591
▁ult	-5592
▁2018,	-5593
▁Rugby	-5594
▁nucle	-5595
▁sport	-5596
But	-5597
▁Bir	-5598
agn	-5599
▁beat	-5600
▁begins	-5601
▁Week	-5602
ependence	-5603
▁Indust	-5604
▁fat	-5605
▁que	-5606
▁barked	-5607
▁ability	-5608
▁laughing	-5609
▁Former	-5610
▁slowly	-5611
▁Nations	-5612
▁sources	-5613
35	-5614
olis	-5615
▁appl	-5616
▁challen	-5617
▁festival	-5618
unc	-5619
▁rich	-5620
▁dragon	-5621
utt	-5622
▁Hockey	-5623
imal	-5624
▁Jews	-5625
▁airport	-5626
awn	-5627
▁Senate	-5628
▁Network	-5629
▁Naz	-5630
▁ign	-5631
▁opera	-5632
▁plate	-5633
▁tries	-5634
▁gentle	-5635
▁laws	-5636
▁brothers	-5637
▁demon	-5638
▁department	-5639
-0	-5640
iro	-5641
iber	-5642
▁whist	-5643
OK	-5644
▁versions	-5645
ulted	-5646
▁2021	-5647
aceful	-5648
▁Brook	-5649
▁controvers	-5650
▁Schools	-5651
gested	-5652
▁approach	-5653
sey	-5654
▁touc	-5655
▁swimming	-5656
▁literature	-5657
–198	-5658
▁library	-5659
▁winners	-5660
▁intended	-5661
75	-5662
gn	-5663
▁kiss	-5664
▁missed	-5665
▁Nic	-5666
perial	-5667
▁bread	-5668
▁Hay	-5669
▁Aff	-5670
▁Constit	-5671
lyn	-5672
inity	-5673
▁buck	-5674
▁cave	-5675
▁Inv	-5676
▁Golden	-5677
▁Alf	-5678
▁Area	-5679
edia	-5680
SS	-5681
▁uns	-5682
▁Secretary	-5683
▁Crit	-5684
▁Even	-5685
▁Born	-5686
▁vote	-5687
▁ordered	-5688
▁parties	-5689
▁2007.	-5690
▁Short	-5691
rophy	-5692
▁pair	-5693
utenant	-5694
▁ut	-5695
rad	-5696
▁Netherlands	-5697
olid	-5698
▁bone	-5699
water	-5700
▁cricket	-5701
▁treatment	-5702
▁tick	-5703
▁fifth	-5704
▁govern	-5705
▁typically	-5706
▁Switzerland	-5707
▁CE	-5708
aska	-5709
▁Mun	-5710
▁withd	-5711
▁Norway	-5712
VD	-5713
claim	-5714
▁produce	-5715
▁princess	-5716
▁button	-5717
omer	-5718
▁purchased	-5719
FC	-5720
iat	-5721
▁traffic	-5722
ault	-5723
▁physical	-5724
▁contribut	-5725
mph	-5726
pur	-5727
▁10,	-5728
▁2019,	-5729
▁escape	-5730
▁highly	-5731
▁Squadron	-5732
▁commonly	-5733
▁Ra	-5734
iary	-5735
▁Technology	-5736
▁compl	-5737
▁grandma	-5738
Un	-5739
–8	-5740
500	-5741
▁Adv	-5742
▁Cas	-5743
▁Bobby	-5744
ivity	-5745
▁prem	-5746
▁Captain	-5747
▁intellig	-5748
▁attend	-5749
▁rap	-5750
▁hiding	-5751
▁Record	-5752
▁wagged	-5753
▁ce	-5754
▁robot	-5755
▁sites	-5756
▁shapes	-5757
▁earth	-5758
ilation	-5759
aki	-5760
ustrated	-5761
yo	-5762
keep	-5763
▁Lind	-5764
▁bush	-5765
▁security	-5766
▁situated	-5767
elle	-5768
arent	-5769
▁lonely	-5770
▁offers	-5771
▁tie	-5772
▁1968	-5773
▁Brad	-5774
▁rout	-5775
▁prote	-5776
ailed	-5777
▁code	-5778
▁disease	-5779
rical	-5780
▁1975	-5781
▁wins	-5782
▁background	-5783
ova	-5784
▁vac	-5785
▁phone	-5786
▁academic	-5787
▁Taylor	-5788
▁promoted	-5789
▁attention	-5790
yal	-5791
ansion	-5792
gely	-5793
▁Rom	-5794
▁Pass	-5795
▁apples	-5796
Sp	-5797
enger	-5798
▁Iraq	-5799
▁semi	-5800
force	-5801
▁hyd	-5802
odies	-5803
▁Prime	-5804
▁blanket	-5805
▁vehicle	-5806
▁suggested	-5807
works	-5808
▁Duke	-5809
▁serves	-5810
▁wealth	-5811
erc	-5812
▁179	-5813
▁Dam	-5814
▁software	-5815
inch	-5816
▁monkey	-5817
outheast	-5818
anth	-5819
▁milk	-5820
▁stood	-5821
▁coaches	-5822
▁behav	-5823
▁crown	-5824
▁sharp	-5825
itional	-5826
yond	-5827
▁feels	-5828
▁Fle	-5829
▁Jill	-5830
▁types	-5831
iated	-5832
▁Fame	-5833
▁growing	-5834
▁hun	-5835
▁Studies	-5836
aws	-5837
▁recomm	-5838
▁Command	-5839
▁heav	-5840
▁conducted	-5841
▁imag	-5842
!”	-5843
oren	-5844
ordin	-5845
▁spin	-5846
▁districts	-5847
▁operating	-5848
hess	-5849
▁coal	-5850
▁boys	-5851
▁pray	-5852
▁instrument	-5853
▁Kansas	-5854
▁Harry	-5855
▁shining	-5856
▁assigned	-5857
▁institutions	-5858
▁1977	-5859
▁sack	-5860
jected	-5861
▁promise	-5862
▁Holy	-5863
▁Marc	-5864
present	-5865
▁pp	-5866
real	-5867
▁charge	-5868
▁Indiana	-5869
▁leaders	-5870
▁combined	-5871
▁pilot	-5872
SC	-5873
▁Tok	-5874
▁probably	-5875
▁medalists	-5876
istol	-5877
▁engineer	-5878
▁managers	-5879
Tim	-5880
▁Id	-5881
▁resident	-5882
▁growth	-5883
▁homes	-5884
▁gained	-5885
▁Es	-5886
▁painting	-5887
athan	-5888
▁lies	-5889
▁landed	-5890
▁Missouri	-5891
▁opportun	-5892
hist	-5893
▁potential	-5894
Good	-5895
which	-5896
▁Police	-5897
▁racing	-5898
▁fiction	-5899
eller	-5900
oln	-5901
rence	-5902
▁holds	-5903
ortheast	-5904
▁accepted	-5905
▁presence	-5906
boy	-5907
ois	-5908
▁needs	-5909
▁max	-5910
▁concent	-5911
▁contest	-5912
▁row	-5913
▁achieve	-5914
▁Bru	-5915
▁Hal	-5916
▁widely	-5917
▁musician	-5918
▁projects	-5919
▁2002,	-5920
▁actually	-5921
LA	-5922
osis	-5923
▁granted	-5924
▁elections	-5925
▁Cambridge	-5926
▁1971	-5927
▁Bear	-5928
▁athlet	-5929
▁cheese	-5930
▁digital	-5931
oz	-5932
rane	-5933
weight	-5934
▁thick	-5935
▁11,	-5936
lying	-5937
▁agreement	-5938
',	-5939
▁9,	-5940
▁Alb	-5941
owing	-5942
▁Ross	-5943
▁legs	-5944
▁Lt	-5945
▁amount	-5946
▁1973	-5947
▁campus	-5948
▁+	-5949
▁industrial	-5950
oop	-5951
▁fine	-5952
ternet	-5953
▁Dor	-5954
▁reform	-5955
▁content	-5956
▁theatre	-5957
achel	-5958
▁2020,	-5959
▁teddy	-5960
▁largely	-5961
▁x	-5962
▁bottom	-5963
Tom	-5964
▁Hu	-5965
▁Us	-5966
▁Lev	-5967
▁rope	-5968
▁eleph	-5969
▁politicians	-5970
▁joy	-5971
▁boss	-5972
▁2000,	-5973
▁Armen	-5974
▁controll	-5975
▁philosop	-5976
Le	-5977
▁Balt	-5978
▁Run	-5979
▁drew	-5980
▁commit	-5981
▁refused	-5982
SP	-5983
-2	-5984
▁Final	-5985
IA	-5986
▁Oak	-5987
▁asp	-5988
▁Project	-5989
anton	-5990
▁activity	-5991
64	-5992
▁sick	-5993
▁recon	-5994
▁Ut	-5995
▁supp	-5996
▁arts	-5997
▁Bibli	-5998
▁newly	-5999
▁Han	-6000
▁paid	-6001
▁judge	-6002
▁twins	-6003
▁Ten	-6004
▁note	-6005
▁models	-6006
▁treasure	-6007
▁mir	-6008
▁purs	-6009
▁Colorado	-6010
▁Design	-6011
▁prec	-6012
▁Colon	-6013
▁sexual	-6014
lar	-6015
▁Hur	-6016
▁flight	-6017
▁puddle	-6018
Sh	-6019
ader	-6020
New	-6021
▁Ele	-6022
▁Hart	-6023
▁valley	-6024
unct	-6025
▁surrounding	-6026
lah	-6027
▁bul	-6028
▁Greece	-6029
▁efforts	-6030
▁delicious	-6031
65	-6032
▁lunch	-6033
▁supply	-6034
▁33	-6035
▁Region	-6036
▁ethn	-6037
▁giant	-6038
put	-6039
▁80	-6040
▁Come	-6041
▁CO	-6042
▁learning	-6043
▁gre	-6044
hemat	-6045
▁kite	-6046
▁Moo	-6047
▁honey	-6048
iate	-6049
▁captured	-6050
▁upset	-6051
▁Cities	-6052
▁Modern	-6053
Be	-6054
lan	-6055
book	-6056
▁extra	-6057
iamond	-6058
▁Freder	-6059
lers	-6060
olved	-6061
▁Rang	-6062
▁Sound	-6063
standing	-6064
▁reduced	-6065
▁adopted	-6066
▁Kentucky	-6067
▁respectively	-6068
aga	-6069
▁Sem	-6070
▁Sport	-6071
▁vehicles	-6072
My	-6073
MA	-6074
▁prominent	-6075
▁5.	-6076
ocol	-6077
▁Finn	-6078
rier	-6079
▁firm	-6080
▁Daniel	-6081
orph	-6082
▁Geography	-6083
ami	-6084
▁fan	-6085
apping	-6086
▁suffered	-6087
▁Melbourne	-6088
▁Slov	-6089
cluding	-6090
▁Sweden	-6091
▁balls	-6092
▁letters	-6093
▁composer	-6094
▁correspond	-6095
=#	-6096
sex	-6097
▁easy	-6098
▁sens	-6099
▁forever	-6100
▁Battalion	-6101
▁2005.	-6102
▁Township	-6103
usion	-6104
agh	-6105
zona	-6106
▁kid	-6107
▁guard	-6108
▁municipalities	-6109
▁Prin	-6110
▁hotel	-6111
ori	-6112
wise	-6113
▁Cla	-6114
▁Work	-6115
▁pages	-6116
▁journey	-6117
akers	-6118
▁Hard	-6119
▁Leon	-6120
▁kick	-6121
TA	-6122
▁Roll	-6123
▁wasn	-6124
▁ways	-6125
raight	-6126
▁finds	-6127
▁constitu	-6128
▁recently	-6129
▁Lie	-6130
▁Bos	-6131
▁bran	-6132
▁Marsh	-6133
▁analysis	-6134
▁formerly	-6135
▁unus	-6136
▁rot	-6137
▁genus	-6138
▁Turkey	-6139
▁Sources	-6140
▁villages	-6141
▁implement	-6142
▁urban	-6143
riff	-6144
▁Free	-6145
▁2008.	-6146
umes	-6147
▁(190	-6148
▁fuel	-6149
▁2001,	-6150
▁hidden	-6151
onsin	-6152
endment	-6153
▁champion	-6154
▁scholars	-6155
▁interp	-6156
55	-6157
▁Rad	-6158
▁mole	-6159
restling	-6160
▁expanded	-6161
▁Bella	-6162
▁flood	-6163
▁miles	-6164
▁declared	-6165
▁turt	-6166
▁Memorial	-6167
▁1964	-6168
▁2022	-6169
▁Kat	-6170
▁impro	-6171
▁settled	-6172
▁brand	-6173
▁juice	-6174
former	-6175
▁resulted	-6176
onents	-6177
▁smooth	-6178
isconsin	-6179
▁(2	-6180
verse	-6181
▁busy	-6182
▁uncle	-6183
▁acting	-6184
▁recognized	-6185
Please	-6186
▁scale	-6187
▁fellow	-6188
ounts	-6189
▁shape	-6190
▁contemporary	-6191
part	-6192
▁fill	-6193
▁veget	-6194
▁flo	-6195
▁Earl	-6196
▁Korean	-6197
▁Transportation	-6198
omot	-6199
▁Sav	-6200
▁etc	-6201
tered	-6202
▁Wars	-6203
acement	-6204
▁distinct	-6205
▁Pit	-6206
▁touched	-6207
worth	-6208
▁sales	-6209
opter	-6210
▁receive	-6211
▁Sciences	-6212
urches	-6213
▁Miller	-6214
▁portion	-6215
▁quality	-6216
▁Tar	-6217
▁drove	-6218
▁16,	-6219
▁Who	-6220
▁founder	-6221
▁retire	-6222
▁Fa	-6223
▁Div	-6224
▁fought	-6225
▁Maryland	-6226
▁suppl	-6227
bell	-6228
▁marked	-6229
ervative	-6230
▁distribution	-6231
▁90	-6232
▁employed	-6233
▁Professor	-6234
▁pit	-6235
onent	-6236
▁1969	-6237
▁drop	-6238
▁anyone	-6239
▁Wisconsin	-6240
▁Real	-6241
▁tasty	-6242
▁Channel	-6243
'.	-6244
▁ec	-6245
▁Manc	-6246
▁cray	-6247
▁calls	-6248
▁swings	-6249
olph	-6250
iskers	-6251
▁joint	-6252
▁hundred	-6253
▁confused	-6254
▁iron	-6255
▁Davis	-6256
▁apart	-6257
▁Sunday	-6258
ibly	-6259
▁gray	-6260
▁compared	-6261
▁Arizona	-6262
▁Gil	-6263
inder	-6264
▁frag	-6265
▁conduct	-6266
▁Var	-6267
▁dial	-6268
▁graduated	-6269
▁Sever	-6270
▁empty	-6271
66	-6272
▁EP	-6273
▁Sum	-6274
▁spons	-6275
–20	-6276
miss	-6277
eral	-6278
osen	-6279
▁bugs	-6280
▁positive	-6281
swer	-6282
▁classical	-6283
▁focus	-6284
▁walls	-6285
▁chain	-6286
▁peace	-6287
▁twice	-6288
▁Basketball	-6289
▁Stock	-6290
▁(4	-6291
▁hab	-6292
iminal	-6293
▁Atlantic	-6294
▁Nick	-6295
▁depart	-6296
▁NFL	-6297
ighth	-6298
▁estate	-6299
▁rac	-6300
▁Remy	-6301
▁scoring	-6302
▁Trust	-6303
▁vocal	-6304
▁teaching	-6305
▁estimated	-6306
▁web	-6307
istered	-6308
▁ru	-6309
▁gets	-6310
▁execut	-6311
ER	-6312
also	-6313
▁Through	-6314
▁designated	-6315
venth	-6316
ashion	-6317
▁fence	-6318
▁Comics	-6319
▁Eth	-6320
▁lie	-6321
▁Doctor	-6322
▁allows	-6323
▁rang	-6324
▁roof	-6325
▁14,	-6326
▁classes	-6327
▁occurred	-6328
▁Entertainment	-6329
▁70	-6330
fortable	-6331
▁Engineering	-6332
hr	-6333
pson	-6334
▁depend	-6335
pool	-6336
▁13,	-6337
▁Malays	-6338
▁accomp	-6339
US	-6340
▁dogs	-6341
▁determined	-6342
rin	-6343
idges	-6344
▁Khan	-6345
aughty	-6346
oration	-6347
▁safety	-6348
▁Hou	-6349
found	-6350
▁Burn	-6351
▁wheel	-6352
▁slight	-6353
▁woke	-6354
▁Among	-6355
▁therefore	-6356
urer	-6357
▁Albums	-6358
▁connected	-6359
▁disestabl	-6360
▁Kal	-6361
EC	-6362
▁faces	-6363
▁Vietnam	-6364
▁damage	-6365
▁journalist	-6366
▁Bol	-6367
▁sculpt	-6368
▁abandon	-6369
▁univers	-6370
▁engineering	-6371
▁Gord	-6372
▁attacks	-6373
▁1966	-6374
▁Here	-6375
illery	-6376
▁governor	-6377
▁magical	-6378
oms	-6379
▁roles	-6380
▁spider	-6381
▁Whiskers	-6382
▁resulting	-6383
▁lit	-6384
▁Croat	-6385
▁trial	-6386
▁subst	-6387
33	-6388
estic	-6389
▁crime	-6390
▁titled	-6391
Is	-6392
ti	-6393
▁Story	-6394
▁Medical	-6395
▁Regional	-6396
antly	-6397
▁Space	-6398
fish	-6399
▁reference	-6400
▁shook	-6401
▁Because	-6402
▁Mexican	-6403
78	-6404
lets	-6405
▁1967	-6406
▁Linc	-6407
anes	-6408
▁Sab	-6409
▁conflict	-6410
▁expected	-6411
ructure	-6412
▁saved	-6413
igrants	-6414
▁Hamilton	-6415
▁45	-6416
▁178	-6417
▁Nap	-6418
▁hid	-6419
▁Liter	-6420
▁buried	-6421
▁Hamp	-6422
hu	-6423
▁Boys	-6424
lahoma	-6425
▁image	-6426
▁Places	-6427
▁branches	-6428
orney	-6429
▁Pier	-6430
▁Services	-6431
▁belonged	-6432
ür	-6433
▁Ast	-6434
car	-6435
▁elder	-6436
▁disappear	-6437
▁cute	-6438
▁neighborhood	-6439
iki	-6440
▁Roy	-6441
▁Sky	-6442
▁ends	-6443
nic	-6444
place	-6445
▁rise	-6446
hedral	-6447
▁Ren	-6448
▁Six	-6449
▁tank	-6450
▁weight	-6451
icient	-6452
▁Adam	-6453
▁squad	-6454
▁seemed	-6455
rawn	-6456
▁Bab	-6457
adesh	-6458
▁puzz	-6459
▁oldest	-6460
irmed	-6461
▁thous	-6462
▁participated	-6463
▁Ford	-6464
▁sheep	-6465
▁nob	-6466
jan	-6467
uls	-6468
regon	-6469
▁prince	-6470
▁Champions	-6471
▁tim	-6472
▁ones	-6473
western	-6474
▁naughty	-6475
▁allowing	-6476
▁wonderful	-6477
kes	-6478
ods	-6479
▁Sn	-6480
▁answer	-6481
▁Bibliography	-6482
▁gar	-6483
▁creation	-6484
unte	-6485
▁Christmas	-6486
▁Ot	-6487
▁Ker	-6488
▁standing	-6489
▁minister	-6490
MS	-6491
roit	-6492
▁hope	-6493
▁injury	-6494
▁signal	-6495
▁print	-6496
etic	-6497
▁DVD	-6498
iants	-6499
79	-6500
zen	-6501
▁rose	-6502
uction	-6503
▁providing	-6504
▁Fac	-6505
▁shy	-6506
▁notes	-6507
▁candidate	-6508
order	-6509
onym	-6510
▁Dig	-6511
aints	-6512
leton	-6513
▁pocket	-6514
▁performances	-6515
ni	-6516
ika	-6517
uous	-6518
▁Hop	-6519
itness	-6520
▁inform	-6521
34	-6522
▁Alan	-6523
▁positions	-6524
▁column	-6525
▁pressure	-6526
▁edge	-6527
OS	-6528
▁Gi	-6529
avel	-6530
▁...	-6531
▁Aud	-6532
ecting	-6533
▁Ow	-6534
▁Element	-6535
▁painted	-6536
▁17,	-6537
uther	-6538
▁fans	-6539
ounted	-6540
▁Temple	-6541
▁faculty	-6542
▁helpful	-6543
▁tur	-6544
▁steel	-6545
▁concert	-6546
▁succeeded	-6547
▁ox	-6548
▁Marg	-6549
▁invited	-6550
tic	-6551
▁Eric	-6552
▁sell	-6553
▁dirt	-6554
▁Honor	-6555
▁wearing	-6556
▁pile	-6557
ocated	-6558
▁fields	-6559
▁facility	-6560
agan	-6561
▁Oklahoma	-6562
▁suddenly	-6563
▁Turn	-6564
▁vess	-6565
▁AC	-6566
▁Dur	-6567
▁Walk	-6568
▁simply	-6569
▁Political	-6570
▁principal	-6571
▁completely	-6572
–4	-6573
usc	-6574
aret	-6575
mers	-6576
▁Ship	-6577
▁knowledge	-6578
rac	-6579
▁couple	-6580
▁winter	-6581
▁Manchester	-6582
-5	-6583
▁Austria	-6584
▁32	-6585
▁municipal	-6586
▁girls	-6587
▁batter	-6588
▁inhabit	-6589
▁rub	-6590
▁scr	-6591
▁Moon	-6592
▁rainbow	-6593
▁Infantry	-6594
▁Ts	-6595
▁20,	-6596
▁Abd	-6597
▁1999,	-6598
▁memory	-6599
▁ir	-6600
▁Billboard	-6601
▁Mrs	-6602
ateur	-6603
▁theme	-6604
▁concer	-6605
▁Lincoln	-6606
orf	-6607
▁aer	-6608
▁Plan	-6609
▁adapt	-6610
igration	-6611
▁25,	-6612
▁Ext	-6613
rank	-6614
▁Test	-6615
▁cheered	-6616
▁greater	-6617
▁starts	-6618
▁element	-6619
▁condition	-6620
aming	-6621
▁18,	-6622
▁Domin	-6623
▁household	-6624
▁Ka	-6625
life	-6626
▁Between	-6627
▁dolls	-6628
▁lands	-6629
ixt	-6630
▁spark	-6631
▁documentary	-6632
▁architecture	-6633
wealth	-6634
▁seats	-6635
▁venues	-6636
▁regions	-6637
▁seed	-6638
▁prize	-6639
▁Orchestra	-6640
▁McG	-6641
▁puppy	-6642
▁existing	-6643
▁administrative	-6644
mun	-6645
▁bill	-6646
▁Oregon	-6647
▁charts	-6648
ão	-6649
▁Regulations	-6650
▁Jam	-6651
▁Emperor	-6652
assed	-6653
▁2009.	-6654
▁cells	-6655
olished	-6656
▁officials	-6657
▁Pict	-6658
icer	-6659
▁1965	-6660
▁taste	-6661
▁Howard	-6662
▁losing	-6663
▁housing	-6664
▁formation	-6665
cluded	-6666
▁identified	-6667
▁sides	-6668
▁younger	-6669
▁Ga	-6670
ensis	-6671
▁Whit	-6672
▁medicine	-6673
▁folk	-6674
▁entry	-6675
▁Johnny	-6676
▁contain	-6677
▁Children	-6678
▁2004.	-6679
▁unusual	-6680
▁AD	-6681
▁Pur	-6682
▁Rabb	-6683
uguese	-6684
▁labor	-6685
▁occupied	-6686
▁Ob	-6687
▁trail	-6688
▁reports	-6689
▁ranked	-6690
ée	-6691
wegian	-6692
▁finding	-6693
ublin	-6694
▁claims	-6695
▁Holly	-6696
▁draft	-6697
ipper	-6698
▁fully	-6699
▁lose	-6700
▁Federation	-6701
Sc	-6702
▁bat	-6703
▁Hand	-6704
▁Sher	-6705
▁lyrics	-6706
▁descend	-6707
▁situation	-6708
▁centuries	-6709
Am	-6710
▁jazz	-6711
▁Silver	-6712
▁bronze	-6713
ikh	-6714
▁Dark	-6715
▁trouble	-6716
ache	-6717
▁jew	-6718
▁jur	-6719
▁Current	-6720
▁factory	-6721
alo	-6722
▁Walter	-6723
▁passes	-6724
▁ug	-6725
▁Cost	-6726
▁Author	-6727
▁narrow	-6728
bro	-6729
-200	-6730
mouth	-6731
▁quar	-6732
▁authority	-6733
▁Production	-6734
▁tea	-6735
elsh	-6736
emic	-6737
▁drawing	-6738
▁purpose	-6739
▁Queensland	-6740
▁authorities	-6741
▁headquarters	-6742
anks	-6743
▁htt	-6744
▁subs	-6745
▁Point	-6746
▁backing	-6747
▁stepped	-6748
FM	-6749
oted	-6750
▁Harv	-6751
▁combat	-6752
▁Anderson	-6753
▁Commonwealth	-6754
hyth	-6755
▁mut	-6756
▁FM	-6757
iques	-6758
▁shore	-6759
▁Patrick	-6760
sch	-6761
▁ped	-6762
▁Cemetery	-6763
▁leadership	-6764
68	-6765
▁Ec	-6766
▁Due	-6767
achers	-6768
▁queen	-6769
▁Ministry	-6770
rif	-6771
rig	-6772
eline	-6773
▁gate	-6774
▁stre	-6775
▁vo	-6776
ieval	-6777
▁aired	-6778
▁Dougl	-6779
▁explained	-6780
▁sets	-6781
▁royal	-6782
▁circle	-6783
▁defined	-6784
▁Representatives	-6785
je	-6786
rum	-6787
▁IV	-6788
▁sne	-6789
▁Alab	-6790
▁Dream	-6791
▁chairman	-6792
aks	-6793
▁effort	-6794
▁experiment	-6795
▁Az	-6796
▁Tai	-6797
▁1963	-6798
utional	-6799
▁creative	-6800
1%	-6801
▁2021,	-6802
▁Thank	-6803
▁statue	-6804
▁22,	-6805
▁turtle	-6806
▁straight	-6807
▁interesting	-6808
bar	-6809
▁chick	-6810
▁portray	-6811
▁Jacob	-6812
▁showing	-6813
▁historic	-6814
38	-6815
ugal	-6816
▁1919	-6817
▁loan	-6818
▁chosen	-6819
dale	-6820
▁lock	-6821
▁Round	-6822
▁Advent	-6823
▁Turkish	-6824
▁hy	-6825
▁ast	-6826
▁Quebec	-6827
▁subsequent	-6828
▁5:	-6829
▁Sri	-6830
▁guest	-6831
▁waiting	-6832
▁performing	-6833
ibb	-6834
thy	-6835
▁Age	-6836
▁useful	-6837
▁actions	-6838
ician	-6839
▁rural	-6840
▁ax	-6841
▁24,	-6842
▁moon	-6843
▁twenty	-6844
AA	-6845
▁sac	-6846
▁tied	-6847
▁playoff	-6848
▁Gun	-6849
▁Lin	-6850
adder	-6851
▁symbol	-6852
▁figures	-6853
▁34	-6854
▁ugly	-6855
▁Detroit	-6856
▁Israeli	-6857
▁educated	-6858
▁expansion	-6859
▁21,	-6860
▁Stone	-6861
99	-6862
▁launch	-6863
ectic	-6864
ening	-6865
▁Heart	-6866
▁critical	-6867
IC	-6868
▁teeth	-6869
▁containing	-6870
cont	-6871
▁eye	-6872
▁sugar	-6873
▁30,	-6874
apore	-6875
iot	-6876
law	-6877
▁horn	-6878
▁Several	-6879
▁demonstr	-6880
▁adventures	-6881
▁materials	-6882
▁vir	-6883
▁Dick	-6884
▁soap	-6885
▁cards	-6886
▁races	-6887
▁Professional	-6888
aug	-6889
▁FIFA	-6890
▁doub	-6891
▁Roger	-6892
▁Tob	-6893
▁Cape	-6894
▁Labor	-6895
▁reviews	-6896
▁theater	-6897
▁expensive	-6898
▁Elementary	-6899
PS	-6900
▁36	-6901
▁AM	-6902
▁poll	-6903
▁Foreign	-6904
▁biggest	-6905
▁politics	-6906
▁Mama	-6907
▁helic	-6908
▁weapons	-6909
▁SR	-6910
▁Instead	-6911
▁painter	-6912
uv	-6913
▁Roc	-6914
▁scar	-6915
▁votes	-6916
▁forget	-6917
76	-6918
uled	-6919
▁lift	-6920
▁defin	-6921
▁elephant	-6922
idy	-6923
owa	-6924
▁Norwegian	-6925
▁exchange	-6926
GB	-6927
▁Gh	-6928
ghan	-6929
▁1945	-6930
▁watching	-6931
▁frequently	-6932
2%	-6933
lock	-6934
ulate	-6935
▁skin	-6936
▁repair	-6937
▁singers	-6938
▁Phill	-6939
▁partner	-6940
bra	-6941
avia	-6942
▁noises	-6943
▁simple	-6944
iley	-6945
▁aim	-6946
▁din	-6947
gment	-6948
▁calling	-6949
▁Alabama	-6950
▁uniform	-6951
▁Management	-6952
apolis	-6953
rect	-6954
▁Trib	-6955
▁Member	-6956
▁cancer	-6957
▁Indones	-6958
▁inspired	-6959
▁promotion	-6960
▁Box	-6961
▁Third	-6962
▁Americans	-6963
▁Kam	-6964
▁Key	-6965
▁Low	-6966
▁fil	-6967
▁setting	-6968
▁strength	-6969
▁address	-6970
▁committee	-6971
▁craw	-6972
Hey	-6973
redited	-6974
3%	-6975
▁soccer	-6976
▁volume	-6977
Re	-6978
from	-6979
▁Sel	-6980
▁lawyer	-6981
▁Musical	-6982
▁attempts	-6983
ifications	-6984
▁Portuguese	-6985
▁Philippines	-6986
▁19,	-6987
iplom	-6988
▁pointed	-6989
▁occasion	-6990
cing	-6991
▁Bah	-6992
die	-6993
▁Conc	-6994
▁Anthony	-6995
iel	-6996
▁Welsh	-6997
iva	-6998
▁Mit	-6999
▁rank	-7000
▁2010.	-7001
▁roads	-7002
▁Philip	-7003
▁advert	-7004
▁favour	-7005
▁returning	-7006
zo	-7007
elve	-7008
▁Rick	-7009
▁hits	-7010
▁Jesus	-7011
▁fresh	-7012
ographer	-7013
"),	-7014
hus	-7015
▁Cre	-7016
▁Grandma	-7017
▁Argentina	-7018
iami	-7019
▁golf	-7020
▁sons	-7021
▁Houston	-7022
▁relatively	-7023
▁Forces	-7024
–6	-7025
▁Tax	-7026
acter	-7027
▁Allen	-7028
▁spoon	-7029
74	-7030
▁balance	-7031
)"	-7032
▁mis	-7033
▁1900	-7034
stal	-7035
▁covers	-7036
jo	-7037
ía	-7038
▁Spe	-7039
▁vent	-7040
cription	-7041
▁Log	-7042
friend	-7043
▁Lo	-7044
iang	-7045
▁Vis	-7046
▁choice	-7047
CD	-7048
fr	-7049
▁Nich	-7050
▁Friend	-7051
▁scre	-7052
▁2022,	-7053
▁Louisiana	-7054
aro	-7055
▁23,	-7056
aria	-7057
▁Brun	-7058
urance	-7059
▁Senior	-7060
▁driving	-7061
▁inhabitants	-7062
▁1998,	-7063
▁commander	-7064
don	-7065
gie	-7066
▁Lyn	-7067
▁arrang	-7068
▁impact	-7069
▁audience	-7070
▁Mix	-7071
ource	-7072
▁agent	-7073
▁Nik	-7074
▁tape	-7075
▁enemy	-7076
▁Season	-7077
▁jumping	-7078
7%	-7079
run	-7080
▁sort	-7081
▁daily	-7082
▁rooms	-7083
▁Rub	-7084
▁Dead	-7085
▁Mand	-7086
▁applied	-7087
gas	-7088
▁Imp	-7089
▁Nag	-7090
▁visited	-7091
night	-7092
Bl	-7093
rate	-7094
▁weather	-7095
organ	-7096
▁Gard	-7097
▁powers	-7098
▁treats	-7099
▁Singapore	-7100
▁invent	-7101
▁converted	-7102
▁fruits	-7103
cow	-7104
fit	-7105
▁Legisl	-7106
▁corpor	-7107
▁collected	-7108
▁Pa	-7109
onom	-7110
▁Priv	-7111
▁eggs	-7112
imens	-7113
▁Mach	-7114
eption	-7115
char	-7116
▁basket	-7117
▁tunnel	-7118
▁attacked	-7119
appy	-7120
inth	-7121
▁Joh	-7122
▁Pap	-7123
etime	-7124
▁Tele	-7125
related	-7126
▁refers	-7127
▁Douglas	-7128
▁impr	-7129
▁Chair	-7130
▁spect	-7131
▁passing	-7132
▁permanent	-7133
''	-7134
▁Only	-7135
▁grab	-7136
▁rapid	-7137
ecticut	-7138
▁Dublin	-7139
ifically	-7140
▁distingu	-7141
▁alternative	-7142
Con	-7143
▁Why	-7144
▁creating	-7145
▁Independent	-7146
8%	-7147
▁6.	-7148
▁Vo	-7149
odox	-7150
stic	-7151
▁cert	-7152
▁somew	-7153
▁competed	-7154
▁extensive	-7155
oster	-7156
▁batt	-7157
▁Relig	-7158
▁settle	-7159
▁proceed	-7160
olas	-7161
▁stock	-7162
Of	-7163
44	-7164
imp	-7165
offe	-7166
▁Dri	-7167
▁Well	-7168
▁loyal	-7169
ials	-7170
antasy	-7171
▁actresses	-7172
▁questions	-7173
▁Brigade	-7174
▁Historical	-7175
GA	-7176
▁Hans	-7177
▁sense	-7178
▁camera	-7179
▁Register	-7180
▁conference	-7181
ión	-7182
▁Anne	-7183
▁2011.	-7184
▁Labour	-7185
▁planet	-7186
iversary	-7187
▁nominated	-7188
scape	-7189
▁Luna	-7190
ateful	-7191
▁UE	-7192
lane	-7193
▁zoo	-7194
▁shut	-7195
▁rocket	-7196
▁whistle	-7197
▁arrested	-7198
song	-7199
agues	-7200
iller	-7201
▁rude	-7202
▁Gordon	-7203
▁articles	-7204
▁historian	-7205
evin	-7206
▁strike	-7207
▁restaurant	-7208
sky	-7209
▁DC	-7210
ista	-7211
▁Non	-7212
▁alle	-7213
▁contact	-7214
▁convers	-7215
uccess	-7216
▁quite	-7217
▁protection	-7218
IT	-7219
▁Sin	-7220
orses	-7221
▁1962	-7222
▁Last	-7223
▁Stew	-7224
▁Garden	-7225
umpy	-7226
uties	-7227
▁cycl	-7228
▁comic	-7229
▁multi	-7230
▁nut	-7231
36	-7232
ante	-7233
▁Chile	-7234
▁Hills	-7235
▁yards	-7236
▁chased	-7237
▁achieved	-7238
▁Ku	-7239
rees	-7240
▁Gab	-7241
ulu	-7242
▁Pot	-7243
▁Jazz	-7244
▁beyond	-7245
▁lect	-7246
▁march	-7247
▁effective	-7248
▁basic	-7249
▁Singles	-7250
▁Information	-7251
39	-7252
oen	-7253
irates	-7254
▁snack	-7255
▁merged	-7256
nership	-7257
▁elimin	-7258
▁ethnic	-7259
▁violin	-7260
▁Islamic	-7261
▁Matthew	-7262
rowd	-7263
▁Front	-7264
▁Moore	-7265
▁prepar	-7266
▁Antonio	-7267
▁entitled	-7268
ilty	-7269
▁splash	-7270
pper	-7271
orter	-7272
▁Diego	-7273
▁confirmed	-7274
▁resources	-7275
▁Ali	-7276
▁1959	-7277
▁zoom	-7278
▁attempted	-7279
▁1:	-7280
▁LI	-7281
burn	-7282
▁anch	-7283
▁heavily	-7284
ifted	-7285
▁guns	-7286
▁scientific	-7287
▁pros	-7288
pedition	-7289
▁Connecticut	-7290
▁300	-7291
▁NAS	-7292
hythm	-7293
▁Dall	-7294
stream	-7295
veland	-7296
▁Miami	-7297
▁26,	-7298
▁hyp	-7299
▁mount	-7300
▁locations	-7301
▁dish	-7302
▁virt	-7303
▁falls	-7304
▁surn	-7305
▁cookie	-7306
▁Deb	-7307
▁Pope	-7308
▁risk	-7309
inking	-7310
▁northeast	-7311
▁Tan	-7312
▁acid	-7313
▁heads	-7314
▁Building	-7315
usal	-7316
▁soldier	-7317
37	-7318
oly	-7319
fall	-7320
▁Bowl	-7321
▁wolf	-7322
▁approved	-7323
▁Broadcast	-7324
▁parliament	-7325
▁Wol	-7326
season	-7327
▁exclus	-7328
▁economy	-7329
▁Magazine	-7330
vo	-7331
▁calc	-7332
▁hugs	-7333
▁amazed	-7334
▁vs	-7335
▁28,	-7336
▁Bry	-7337
berry	-7338
vens	-7339
▁wound	-7340
▁healthy	-7341
▁apparent	-7342
wr	-7343
gor	-7344
▁Ern	-7345
eries	-7346
ropri	-7347
▁recordings	-7348
–197	-7349
▁Plot	-7350
▁2000.	-7351
▁wand	-7352
izza	-7353
▁begin	-7354
▁easily	-7355
▁unable	-7356
▁Affairs	-7357
▁closely	-7358
▁directors	-7359
ogue	-7360
▁Ark	-7361
aling	-7362
▁Girls	-7363
▁Buildings	-7364
100	-7365
▁Cow	-7366
▁Tamil	-7367
▁liber	-7368
▁underst	-7369
▁slightly	-7370
rome	-7371
▁cas	-7372
▁retirement	-7373
▁rom	-7374
▁1996,	-7375
▁neighbour	-7376
▁publication	-7377
6%	-7378
atus	-7379
▁Bou	-7380
▁Lam	-7381
rant	-7382
▁chance	-7383
▁feather	-7384
▁incident	-7385
acent	-7386
▁1961	-7387
▁wash	-7388
▁boats	-7389
▁Security	-7390
▁functions	-7391
▁Call	-7392
▁27,	-7393
inema	-7394
▁acts	-7395
▁clock	-7396
arks	-7397
▁Iron	-7398
PA	-7399
aron	-7400
phas	-7401
▁spo	-7402
▁gain	-7403
▁Bruce	-7404
▁arran	-7405
▁lucky	-7406
▁bishop	-7407
Cl	-7408
owed	-7409
▁adult	-7410
cut	-7411
gency	-7412
▁knee	-7413
▁nerv	-7414
▁2003.	-7415
▁Roberts	-7416
▁opposed	-7417
▁necessary	-7418
▁Oll	-7419
▁educational	-7420
ST	-7421
roph	-7422
▁Juan	-7423
▁1997,	-7424
▁Pitts	-7425
▁sixth	-7426
▁Cab	-7427
▁Belg	-7428
58	-7429
▁Cra	-7430
▁Kings	-7431
▁Moscow	-7432
48	-7433
agu	-7434
▁advanced	-7435
▁Na	-7436
▁Staff	-7437
▁veter	-7438
▁deploy	-7439
ici	-7440
▁1948	-7441
▁Orth	-7442
▁Local	-7443
▁derived	-7444
tery	-7445
imore	-7446
▁Chir	-7447
▁properties	-7448
▁Administration	-7449
▁Tun	-7450
▁Tel	-7451
rison	-7452
▁adap	-7453
▁grown	-7454
SR	-7455
site	-7456
enez	-7457
▁Ltd	-7458
▁Lang	-7459
▁selfish	-7460
59	-7461
ré	-7462
phone	-7463
engers	-7464
ishment	-7465
▁killing	-7466
▁shortly	-7467
ctoral	-7468
▁sticks	-7469
▁nuclear	-7470
▁shirt	-7471
hammad	-7472
▁Metropolitan	-7473
low	-7474
bach	-7475
▁ABC	-7476
▁Afghan	-7477
▁Prior	-7478
▁copies	-7479
ancer	-7480
▁Phys	-7481
▁Upon	-7482
▁Nob	-7483
▁1944	-7484
▁Mult	-7485
▁delay	-7486
▁fashion	-7487
▁kitten	-7488
asted	-7489
▁Kevin	-7490
▁loves	-7491
▁defend	-7492
▁script	-7493
▁obtained	-7494
▁compilation	-7495
▁*	-7496
udget	-7497
▁chose	-7498
Sure	-7499
▁shelf	-7500
▁choose	-7501
▁consum	-7502
▁application	-7503
ouver	-7504
▁UEFA	-7505
vement	-7506
▁Naval	-7507
▁habit	-7508
▁exerc	-7509
▁stores	-7510
▁Ni	-7511
▁Tig	-7512
▁spok	-7513
▁Clark	-7514
4%	-7515
▁shall	-7516
▁Ice	-7517
allel	-7518
▁Portugal	-7519
rep	-7520
▁1958	-7521
▁dram	-7522
azines	-7523
▁critics	-7524
essed	-7525
▁starring	-7526
▁sportspeople	-7527
▁respond	-7528
des	-7529
▁fake	-7530
▁Ale	-7531
▁truth	-7532
▁orders	-7533
▁Harvard	-7534
oga	-7535
iner	-7536
▁puts	-7537
opher	-7538
while	-7539
▁rear	-7540
▁Daddy	-7541
▁decades	-7542
iti	-7543
cover	-7544
▁impl	-7545
▁Mississ	-7546
▁carrying	-7547
▁businesses	-7548
eway	-7549
actor	-7550
▁Holl	-7551
▁Operation	-7552
ski	-7553
wing	-7554
▁kil	-7555
▁Square	-7556
▁Cleveland	-7557
thes	-7558
▁heat	-7559
▁flash	-7560
▁spicy	-7561
elson	-7562
▁recru	-7563
▁Though	-7564
9%	-7565
▁Jay	-7566
eon	-7567
▁Il	-7568
ippi	-7569
▁(),	-7570
▁Tokyo	-7571
▁Alice	-7572
▁Bunny	-7573
▁toward	-7574
▁Natural	-7575
▁message	-7576
▁Internet	-7577
orb	-7578
roke	-7579
▁sword	-7580
▁Frederick	-7581
▁opposition	-7582
duct	-7583
angel	-7584
bound	-7585
▁Clin	-7586
▁methods	-7587
▁recover	-7588
▁Mov	-7589
▁1956	-7590
▁identity	-7591
▁literacy	-7592
▁observed	-7593
▁Amb	-7594
▁adm	-7595
offee	-7596
▁technical	-7597
▁planning	-7598
▁Background	-7599
").	-7600
▁Fil	-7601
epper	-7602
▁poem	-7603
▁Chen	-7604
▁Snow	-7605
▁seems	-7606
▁spray	-7607
-8	-7608
▁Ty	-7609
ardo	-7610
▁Whe	-7611
style	-7612
▁Singh	-7613
ropical	-7614
oria	-7615
▁nick	-7616
ymn	-7617
▁ahead	-7618
▁mysterious	-7619
▁Fal	-7620
▁bucket	-7621
umin	-7622
ivalent	-7623
heme	-7624
▁wealthy	-7625
aze	-7626
▁38	-7627
▁gall	-7628
▁oven	-7629
▁torn	-7630
▁Place	-7631
igenous	-7632
▁Racing	-7633
uda	-7634
orage	-7635
▁Culture	-7636
▁marry	-7637
▁encoun	-7638
▁entrance	-7639
di	-7640
▁cable	-7641
▁embarr	-7642
▁guilty	-7643
▁request	-7644
▁consecutive	-7645
77	-7646
-18	-7647
▁Sac	-7648
▁(189	-7649
▁steam	-7650
▁compar	-7651
▁religion	-7652
itals	-7653
▁Studios	-7654
rm	-7655
▁7.	-7656
▁29,	-7657
▁Nat	-7658
▁narr	-7659
▁equal	-7660
▁Player	-7661
▁skills	-7662
cha	-7663
olo	-7664
otten	-7665
iations	-7666
igation	-7667
▁(;	-7668
▁Ryan	-7669
iments	-7670
borough	-7671
▁females	-7672
▁consisted	-7673
▁mayor	-7674
▁rival	-7675
▁defense	-7676
▁Imperial	-7677
ui	-7678
uma	-7679
▁price	-7680
▁recip	-7681
▁franch	-7682
▁contained	-7683
▁northwest	-7684
▁NBA	-7685
▁champions	-7686
SI	-7687
dam	-7688
▁Wy	-7689
▁connection	-7690
▁Mem	-7691
▁plot	-7692
▁strip	-7693
31	-7694
▁Wa	-7695
rait	-7696
▁license	-7697
rett	-7698
▁Andre	-7699
▁daddy	-7700
▁briefly	-7701
rast	-7702
▁hired	-7703
CAA	-7704
▁Nord	-7705
▁Ollie	-7706
▁Norman	-7707
▁locomot	-7708
32	-7709
isf	-7710
elli	-7711
▁Ran	-7712
▁replace	-7713
Lily	-7714
▁Eag	-7715
▁borders	-7716
▁Brothers	-7717
▁(188	-7718
▁Jord	-7719
▁colour	-7720
▁PA	-7721
orus	-7722
▁ber	-7723
▁Vers	-7724
▁anth	-7725
▁pump	-7726
▁Territ	-7727
▁Princess	-7728
▁Plat	-7729
▁Wolf	-7730
▁reflect	-7731
▁founding	-7732
nia	-7733
▁Chart	-7734
▁brain	-7735
▁licens	-7736
ancouver	-7737
▁invasion	-7738
He	-7739
▁auth	-7740
▁Lawrence	-7741
▁Zh	-7742
▁avoid	-7743
▁ideas	-7744
▁polic	-7745
▁failure	-7746
▁honest	-7747
▁extension	-7748
▁Farm	-7749
▁2012.	-7750
▁About	-7751
▁Trade	-7752
▁Scient	-7753
▁Yan	-7754
▁Hell	-7755
▁Momo	-7756
▁flat	-7757
▁ducks	-7758
dd	-7759
▁task	-7760
▁Ever	-7761
boards	-7762
▁Opera	-7763
▁bands	-7764
▁demand	-7765
▁prefer	-7766
▁causing	-7767
▁offices	-7768
▁Tro	-7769
porter	-7770
▁snowman	-7771
54	-7772
Come	-7773
izzy	-7774
raid	-7775
▁laid	-7776
▁Laure	-7777
▁faith	-7778
▁ocean	-7779
▁Colomb	-7780
▁Mission	-7781
▁Baltimore	-7782
spec	-7783
▁Verm	-7784
▁Russell	-7785
▁Montreal	-7786
▁churches	-7787
▁competitions	-7788
▁relie	-7789
▁temperature	-7790
▁rein	-7791
leased	-7792
▁Primary	-7793
▁operate	-7794
ographics	-7795
agen	-7796
▁Palace	-7797
▁greatest	-7798
▁Mountains	-7799
▁hour	-7800
ussion	-7801
▁negot	-7802
▁Dallas	-7803
▁reaching	-7804
▁Hungarian	-7805
▁abandoned	-7806
Ne	-7807
isd	-7808
atures	-7809
▁reign	-7810
▁renov	-7811
▁Sometimes	-7812
▁agricultural	-7813
▁literary	-7814
▁patients	-7815
▁Ky	-7816
▁leads	-7817
▁dancing	-7818
Me	-7819
acht	-7820
▁Our	-7821
▁solid	-7822
▁engaged	-7823
▁peaceful	-7824
hard	-7825
ifer	-7826
▁Barry	-7827
ressive	-7828
▁Austrian	-7829
▁ultimately	-7830
▁Environment	-7831
▁cru	-7832
▁maximum	-7833
▁reasons	-7834
▁Gary	-7835
▁Karl	-7836
▁2002.	-7837
▁broadc	-7838
▁passenger	-7839
ultan	-7840
▁wire	-7841
▁Dance	-7842
▁rescue	-7843
▁Liberal	-7844
▁drivers	-7845
▁Brazilian	-7846
HS	-7847
▁aw	-7848
▁Yor	-7849
osite	-7850
ubbed	-7851
▁1952	-7852
▁answ	-7853
▁lamp	-7854
▁Stewart	-7855
oba	-7856
▁ha	-7857
▁helps	-7858
▁Heritage	-7859
ingham	-7860
▁shake	-7861
▁sought	-7862
▁Pear	-7863
▁illust	-7864
▁profile	-7865
?”	-7866
vis	-7867
▁Tit	-7868
▁Ocean	-7869
including	-7870
▁Reception	-7871
orro	-7872
▁calm	-7873
▁synd	-7874
▁height	-7875
▁understood	-7876
▁‘	-7877
oyd	-7878
udi	-7879
▁UN	-7880
▁Syn	-7881
▁swe	-7882
▁belt	-7883
▁rebu	-7884
▁wine	-7885
▁2013.	-7886
ogen	-7887
wick	-7888
cano	-7889
▁internal	-7890
otte	-7891
sters	-7892
▁Satur	-7893
-6	-7894
arsh	-7895
▁(192	-7896
▁clouds	-7897
▁receiving	-7898
▁Publishing	-7899
AM	-7900
▁Inn	-7901
▁Pas	-7902
rient	-7903
▁1994,	-7904
▁Alfred	-7905
attan	-7906
▁Bull	-7907
▁deer	-7908
▁tend	-7909
orship	-7910
▁dates	-7911
▁alleged	-7912
▁grateful	-7913
rain	-7914
▁sle	-7915
▁Gram	-7916
▁Reform	-7917
▁Samuel	-7918
▁climate	-7919
ayer	-7920
TC	-7921
Mar	-7922
aza	-7923
▁Cru	-7924
▁Wing	-7925
ensity	-7926
▁Disney	-7927
▁puzzle	-7928
▁Vancouver	-7929
▁Kur	-7930
▁Rain	-7931
▁propos	-7932
▁southeast	-7933
▁generation	-7934
adi	-7935
▁Gran	-7936
▁humans	-7937
ologists	-7938
enz	-7939
▁extrem	-7940
▁global	-7941
▁Broadway	-7942
▁independence	-7943
rist	-7944
▁Spr	-7945
▁Beat	-7946
▁Circ	-7947
▁sale	-7948
▁evening	-7949
▁Hotel	-7950
▁switch	-7951
▁Atlanta	-7952
▁(,	-7953
alty	-7954
otic	-7955
▁opin	-7956
▁soil	-7957
▁messy	-7958
▁Cer	-7959
▁Lanc	-7960
▁Shah	-7961
▁install	-7962
▁400	-7963
▁Yug	-7964
▁san	-7965
icide	-7966
▁Danish	-7967
▁focused	-7968
▁existence	-7969
▁José	-7970
father	-7971
▁Seattle	-7972
▁Pittsburgh	-7973
ci	-7974
feld	-7975
isms	-7976
▁1939	-7977
icians	-7978
▁Express	-7979
▁Jason	-7980
▁Years	-7981
▁graph	-7982
▁lemon	-7983
▁kingdom	-7984
▁salt	-7985
▁repeated	-7986
56	-7987
▁Ian	-7988
after	-7989
▁1955	-7990
▁1995,	-7991
▁scenes	-7992
▁chemical	-7993
ović	-7994
▁Las	-7995
erman	-7996
▁Prom	-7997
▁Liver	-7998
▁Ukraine	-7999
OR	-8000
rim	-8001
died	-8002
eland	-8003
▁1942	-8004
▁chest	-8005
▁islands	-8006
▁Male	-8007
▁Bengal	-8008
▁incorporated	-8009
–194	-8010
▁flex	-8011
issance	-8012
mi	-8013
▁importance	-8014
If	-8015
▁Horn	-8016
aching	-8017
▁emphas	-8018
▁Belgium	-8019
▁1957	-8020
▁select	-8021
▁Personnel	-8022
▁maintained	-8023
gow	-8024
cons	-8025
haps	-8026
kshire	-8027
▁clever	-8028
–196	-8029
▁Cher	-8030
▁Five	-8031
▁worm	-8032
▁transform	-8033
▁statistics	-8034
▁Christopher	-8035
ín	-8036
▁jog	-8037
▁Cooper	-8038
▁advant	-8039
▁argued	-8040
▁speech	-8041
-9	-8042
uerto	-8043
▁crossing	-8044
▁recognition	-8045
uri	-8046
▁Anc	-8047
▁Donald	-8048
▁diplom	-8049
kh	-8050
keeper	-8051
▁Mean	-8052
▁decre	-8053
▁introduction	-8054
▁1947	-8055
▁items	-8056
▁occas	-8057
▁Cultural	-8058
▁competitive	-8059
▁stands	-8060
▁Mississippi	-8061
emony	-8062
▁Blues	-8063
▁bin	-8064
▁ladder	-8065
–7	-8066
star	-8067
▁Ped	-8068
▁Motor	-8069
esh	-8070
▁bull	-8071
▁pitc	-8072
▁pitch	-8073
aux	-8074
▁grumpy	-8075
▁Dal	-8076
▁advance	-8077
▁programme	-8078
www	-8079
liest	-8080
▁Guide	-8081
▁jelly	-8082
▁É	-8083
▁Iowa	-8084
orough	-8085
▁Event	-8086
rete	-8087
grade	-8088
▁Lith	-8089
▁frame	-8090
ando	-8091
icit	-8092
▁rivers	-8093
▁praised	-8094
▁reaction	-8095
▁regarded	-8096
▁contributed	-8097
▁Cry	-8098
▁tra	-8099
▁2001.	-8100
▁conqu	-8101
▁tools	-8102
ecution	-8103
▁asking	-8104
▁experi	-8105
stan	-8106
▁exact	-8107
▁Harris	-8108
▁poetry	-8109
▁stretch	-8110
▁environmental	-8111
▁Rex	-8112
▁mart	-8113
▁Orthodox	-8114
▁McK	-8115
▁aid	-8116
aceae	-8117
ieties	-8118
▁grade	-8119
▁billion	-8120
▁dynasty	-8121
▁attached	-8122
FF	-8123
Eng	-8124
▁Bart	-8125
▁Pete	-8126
▁pole	-8127
▁crash	-8128
▁pillow	-8129
intend	-8130
uration	-8131
▁Village	-8132
▁Hollywood	-8133
▁Lieutenant	-8134
enh	-8135
▁Fell	-8136
▁Speed	-8137
▁twist	-8138
porters	-8139
▁bodies	-8140
▁Mum	-8141
ishops	-8142
▁representing	-8143
▁pic	-8144
owned	-8145
▁Dean	-8146
million	-8147
▁elderly	-8148
▁Kl	-8149
▁motion	-8150
▁Malaysia	-8151
▁commissioned	-8152
▁Leban	-8153
▁Kenned	-8154
▁Rivers	-8155
▁conce	-8156
▁mirror	-8157
▁helicopter	-8158
esc	-8159
chers	-8160
▁proved	-8161
▁Arn	-8162
▁MPs	-8163
▁send	-8164
▁Upper	-8165
▁phase	-8166
▁waves	-8167
▁adapted	-8168
▁fictional	-8169
49	-8170
▁seeds	-8171
▁Puerto	-8172
▁Charlie	-8173
▁181	-8174
▁Fern	-8175
▁faced	-8176
▁pizza	-8177
unction	-8178
ographical	-8179
▁consisting	-8180
iac	-8181
pan	-8182
▁jobs	-8183
▁substit	-8184
▁Kaz	-8185
angle	-8186
▁1943	-8187
▁Ward	-8188
▁headed	-8189
▁junior	-8190
▁waters	-8191
▁restored	-8192
▁influenced	-8193
57	-8194
▁1954	-8195
▁aged	-8196
▁beak	-8197
▁Railroad	-8198
▁celebrated	-8199
▁Gib	-8200
▁1946	-8201
▁sole	-8202
▁Buff	-8203
▁formal	-8204
▁animated	-8205
▁expressed	-8206
ungle	-8207
▁1951	-8208
▁Food	-8209
▁1993,	-8210
▁Demographics	-8211
asters	-8212
▁voted	-8213
▁Jordan	-8214
▁papers	-8215
▁Doggy	-8216
▁quant	-8217
ocolate	-8218
▁twelve	-8219
▁chamber	-8220
rives	-8221
rogen	-8222
▁surf	-8223
▁theat	-8224
▁Austin	-8225
▁Alberta	-8226
▁selection	-8227
▁establishment	-8228
III	-8229
▁Crown	-8230
▁shark	-8231
▁surre	-8232
▁entirely	-8233
▁investigation	-8234
emen	-8235
▁clay	-8236
▁adjacent	-8237
wall	-8238
▁Get	-8239
▁stamp	-8240
▁behavior	-8241
▁domestic	-8242
uro	-8243
uable	-8244
▁funds	-8245
▁steal	-8246
▁trump	-8247
▁reserv	-8248
▁shield	-8249
▁nervous	-8250
▁specifically	-8251
cell	-8252
antine	-8253
ubbles	-8254
▁doct	-8255
▁ghost	-8256
claimed	-8257
▁occurs	-8258
▁backyard	-8259
asp	-8260
▁Fund	-8261
▁nickn	-8262
▁appeal	-8263
▁selling	-8264
▁Direct	-8265
osy	-8266
▁48	-8267
▁enroll	-8268
▁legend	-8269
▁Kennedy	-8270
▁Writers	-8271
▁finishing	-8272
▁involving	-8273
bishop	-8274
▁Venez	-8275
ologies	-8276
▁Executive	-8277
▁Glas	-8278
▁Jenny	-8279
▁knocked	-8280
▁contrast	-8281
▁coverage	-8282
▁regarding	-8283
▁resistance	-8284
obe	-8285
▁mos	-8286
cycle	-8287
▁copy	-8288
annels	-8289
clusion	-8290
erg	-8291
estiv	-8292
▁ment	-8293
edding	-8294
▁notably	-8295
▁Populated	-8296
▁description	-8297
IV	-8298
▁Alexand	-8299
▁funding	-8300
ictionary	-8301
▁installed	-8302
52	-8303
▁Vin	-8304
▁supporting	-8305
▁Global	-8306
▁successfully	-8307
▁Pad	-8308
▁Thus	-8309
itionally	-8310
▁Kan	-8311
point	-8312
▁Gill	-8313
▁file	-8314
▁raise	-8315
utation	-8316
▁Athletics	-8317
▁worldwide	-8318
▁Constitution	-8319
oos	-8320
iday	-8321
▁Rud	-8322
▁lat	-8323
▁ancest	-8324
eding	-8325
▁Maur	-8326
▁tent	-8327
▁Grant	-8328
▁jewel	-8329
▁Confeder	-8330
▁translated	-8331
▁2014.	-8332
▁Yugosl	-8333
▁routes	-8334
▁separated	-8335
▁passengers	-8336
▁profession	-8337
ayan	-8338
▁Hug	-8339
▁grad	-8340
▁Evans	-8341
▁maybe	-8342
hin	-8343
▁unp	-8344
▁Fall	-8345
▁Gene	-8346
▁Hawai	-8347
▁representative	-8348
▁ske	-8349
▁Sign	-8350
▁Youth	-8351
▁palace	-8352
▁joining	-8353
▁foundation	-8354
rons	-8355
▁Cole	-8356
▁poly	-8357
astery	-8358
▁Benny	-8359
▁spell	-8360
▁49	-8361
▁Symph	-8362
▁Thompson	-8363
▁classroom	-8364
▁standards	-8365
▁controlled	-8366
mont	-8367
▁belief	-8368
▁scholar	-8369
▁2023	-8370
▁superv	-8371
▁visual	-8372
▁consequ	-8373
▁sections	-8374
▁FA	-8375
▁Ry	-8376
gery	-8377
ricane	-8378
▁fancy	-8379
▁causes	-8380
▁sleepy	-8381
▁Ottoman	-8382
▁Treaties	-8383
urse	-8384
▁vice	-8385
53	-8386
LC	-8387
▁Comb	-8388
▁NCAA	-8389
▁ruled	-8390
▁Liverpool	-8391
▁;	-8392
▁stir	-8393
ainian	-8394
▁Defense	-8395
▁sequence	-8396
▁150	-8397
▁1953	-8398
▁composers	-8399
▁producing	-8400
uster	-8401
▁1949	-8402
▁Bush	-8403
▁Gulf	-8404
achelor	-8405
▁mand	-8406
▁inaug	-8407
▁smell	-8408
mingham	-8409
▁Socorro	-8410
▁Brooklyn	-8411
▁prepared	-8412
▁concluded	-8413
▁techniques	-8414
▁Fem	-8415
▁Carm	-8416
▁bark	-8417
▁fier	-8418
aduate	-8419
▁Kelly	-8420
▁Psych	-8421
entially	-8422
▁guitarist	-8423
▁partnership	-8424
GBT	-8425
EA	-8426
▁retail	-8427
▁Denmark	-8428
▁Stanley	-8429
▁railroad	-8430
ashi	-8431
then	-8432
▁furn	-8433
▁merch	-8434
▁crayons	-8435
▁purposes	-8436
5 	-8437
▁39	-8438
000.	-8439
avalry	-8440
▁1992,	-8441
▁Daily	-8442
▁Fried	-8443
▁Sportspeople	-8444
power	-8445
rastructure	-8446
51	-8447
ido	-8448
uin	-8449
▁jet	-8450
▁Milan	-8451
▁afraid	-8452
▁forgive	-8453
▁premier	-8454
▁championships	-8455
efe	-8456
▁Tak	-8457
cussion	-8458
▁astron	-8459
▁jurisd	-8460
eler	-8461
▁tool	-8462
▁armed	-8463
▁releg	-8464
▁Knight	-8465
▁Method	-8466
▁priest	-8467
▁injured	-8468
▁Nar	-8469
▁Peters	-8470
▁difference	-8471
sea	-8472
▁Fu	-8473
▁vide	-8474
▁zone	-8475
▁Emily	-8476
tenance	-8477
▁intern	-8478
▁grounds	-8479
▁returns	-8480
do	-8481
oda	-8482
uly	-8483
▁images	-8484
▁magnet	-8485
46	-8486
NEAR	-8487
▁crowd	-8488
▁gently	-8489
▁PC	-8490
▁objects	-8491
chell	-8492
▁limit	-8493
▁Rights	-8494
atherine	-8495
▁accompan	-8496
▁possibly	-8497
▁paw	-8498
▁Beck	-8499
ighted	-8500
▁Gener	-8501
▁Taiwan	-8502
▁Athletic	-8503
▁criminal	-8504
▁divisions	-8505
Man	-8506
chi	-8507
▁Si	-8508
eless	-8509
▁kicked	-8510
▁ordinary	-8511
▁Niger	-8512
▁LINEAR	-8513
▁values	-8514
▁fishing	-8515
▁parallel	-8516
▁documents	-8517
PC	-8518
chen	-8519
▁182	-8520
▁Edin	-8521
▁bond	-8522
▁resemb	-8523
▁compete	-8524
▁courses	-8525
▁witness	-8526
▁Romanian	-8527
▁opposite	-8528
▁Educational	-8529
acle	-8530
▁Nev	-8531
oustic	-8532
▁comed	-8533
▁intersection	-8534
lend	-8535
▁photo	-8536
▁scheduled	-8537
▁translation	-8538
amo	-8539
icycle	-8540
▁imprison	-8541
▁southwest	-8542
▁DJ	-8543
▁meat	-8544
▁Peace	-8545
▁Broadcasting	-8546
ao	-8547
▁37	-8548
aman	-8549
ienna	-8550
▁Soccer	-8551
▁coordin	-8552
▁Ye	-8553
icts	-8554
▁myth	-8555
▁chase	-8556
▁Chirpy	-8557
▁Walker	-8558
▁stones	-8559
▁freedom	-8560
▁resigned	-8561
▁Sud	-8562
▁Side	-8563
▁2016.	-8564
▁Margaret	-8565
▁AR	-8566
clop	-8567
▁Trail	-8568
essions	-8569
▁borrow	-8570
heastern	-8571
hematics	-8572
▁violence	-8573
▁electronic	-8574
orton	-8575
ception	-8576
▁archae	-8577
▁metres	-8578
▁smelled	-8579
▁improved	-8580
▁residential	-8581
osm	-8582
▁31,	-8583
▁Mes	-8584
▁Pun	-8585
▁Rand	-8586
origin	-8587
▁combination	-8588
-20	-8589
nie	-8590
▁none	-8591
ealous	-8592
▁income	-8593
▁charges	-8594
DA	-8595
was	-8596
oper	-8597
▁Lank	-8598
▁engines	-8599
▁Mans	-8600
insula	-8601
▁2015.	-8602
▁Birmingham	-8603
▁developing	-8604
▁Sax	-8605
▁LGBT	-8606
▁agency	-8607
▁Commander	-8608
▁Expatriate	-8609
▁Dak	-8610
▁Phot	-8611
▁Agric	-8612
▁Johann	-8613
▁Morris	-8614
▁earliest	-8615
TS	-8616
isy	-8617
▁exhibition	-8618
BI	-8619
Now	-8620
istent	-8621
▁1990,	-8622
▁Father	-8623
▁cooper	-8624
▁observ	-8625
▁protein	-8626
▁defensive	-8627
▁1941	-8628
▁ants	-8629
▁Players	-8630
▁negative	-8631
lon	-8632
xual	-8633
▁Full	-8634
▁worth	-8635
▁Franklin	-8636
▁wondered	-8637
és	-8638
top	-8639
who	-8640
amer	-8641
▁Gon	-8642
▁Ins	-8643
▁sym	-8644
ommod	-8645
onian	-8646
▁operates	-8647
▁Comple	-8648
▁decide	-8649
uccessful	-8650
▁Champion	-8651
▁Architect	-8652
▁equivalent	-8653
lad	-8654
illing	-8655
ointed	-8656
▁picks	-8657
▁courts	-8658
▁falling	-8659
▁promote	-8660
▁Venezuel	-8661
47	-8662
▁grant	-8663
▁weapon	-8664
▁persons	-8665
▁universities	-8666
▁Marvel	-8667
▁minute	-8668
▁seconds	-8669
▁examples	-8670
▁employees	-8671
▁Rap	-8672
▁Blood	-8673
▁Susan	-8674
▁actual	-8675
▁True	-8676
▁whis	-8677
▁category	-8678
gi	-8679
going	-8680
▁1936	-8681
▁Lower	-8682
din	-8683
▁Again	-8684
▁fleet	-8685
▁Native	-8686
▁device	-8687
▁volunte	-8688
▁tomorrow	-8689
▁evolution	-8690
DP	-8691
▁Ay	-8692
▁WW	-8693
odge	-8694
▁tor	-8695
▁Rest	-8696
type	-8697
shine	-8698
▁sust	-8699
▁cleaned	-8700
▁1991,	-8701
▁Woman	-8702
▁finger	-8703
▁appoint	-8704
▁Secondary	-8705
▁opportunity	-8706
▁Wes	-8707
▁tag	-8708
▁Cook	-8709
amples	-8710
uy	-8711
ouses	-8712
▁peak	-8713
▁teen	-8714
▁Metro	-8715
▁Windows	-8716
IN	-8717
olt	-8718
idel	-8719
otes	-8720
▁colleges	-8721
--	-8722
case	-8723
▁Murray	-8724
▁Century	-8725
▁paintings	-8726
▁newspapers	-8727
lie	-8728
prise	-8729
▁joke	-8730
▁1997.	-8731
▁pione	-8732
atab	-8733
▁coins	-8734
▁Nelson	-8735
▁Rangers	-8736
▁intelligence	-8737
ompl	-8738
▁pale	-8739
▁remov	-8740
▁boring	-8741
▁resear	-8742
▁describes	-8743
▁Bed	-8744
onomy	-8745
▁steps	-8746
▁strateg	-8747
67	-8748
▁42	-8749
▁cater	-8750
▁Glasgow	-8751
▁stating	-8752
uki	-8753
long	-8754
▁ski	-8755
▁flow	-8756
▁Morgan	-8757
▁budget	-8758
▁edited	-8759
▁smelly	-8760
▁terror	-8761
▁applications	-8762
osph	-8763
▁Prof	-8764
▁Hindu	-8765
▁aggreg	-8766
▁Romania	-8767
▁Website	-8768
▁Alliance	-8769
▁shooting	-8770
▁substant	-8771
wo	-8772
▁Ted	-8773
▁Wright	-8774
41	-8775
equ	-8776
▁8.	-8777
▁10.	-8778
▁Dom	-8779
ampton	-8780
▁horses	-8781
▁Saturday	-8782
▁ceremony	-8783
▁Edinburgh	-8784
▁Hig	-8785
▁die	-8786
▁anniversary	-8787
amic	-8788
▁Nav	-8789
▁Ukrainian	-8790
▁protected	-8791
tha	-8792
▁Cass	-8793
▁medieval	-8794
▁instruments	-8795
rine	-8796
▁spoke	-8797
▁Hampshire	-8798
opal	-8799
ighed	-8800
▁Nash	-8801
▁1999.	-8802
▁Hend	-8803
▁Hold	-8804
▁link	-8805
▁doesn	-8806
▁details	-8807
▁session	-8808
ét	-8809
▁Vic	-8810
▁ago	-8811
▁Mess	-8812
▁Market	-8813
aughters	-8814
▁Honours	-8815
▁revolution	-8816
tle	-8817
▁Stars	-8818
▁breath	-8819
▁lovely	-8820
▁Discography	-8821
▁Baby	-8822
▁Borough	-8823
▁jealous	-8824
▁Nazi	-8825
▁Construction	-8826
Jo	-8827
asa	-8828
xts	-8829
anga	-8830
▁Fel	-8831
▁Bomb	-8832
▁wake	-8833
▁Wayne	-8834
▁potato	-8835
▁supposed	-8836
▁Authority	-8837
phy	-8838
▁Neb	-8839
▁Vice	-8840
▁enthus	-8841
▁parent	-8842
▁sandwich	-8843
▁telephone	-8844
acc	-8845
acket	-8846
▁1938	-8847
▁ward	-8848
▁ticket	-8849
ishments	-8850
;"|	-8851
osure	-8852
▁waste	-8853
▁Compet	-8854
▁Graham	-8855
▁typical	-8856
▁franchise	-8857
▁Clar	-8858
▁bossy	-8859
▁costs	-8860
hips	-8861
▁Mind	-8862
▁duty	-8863
▁Larry	-8864
▁Carlos	-8865
▁Volume	-8866
po	-8867
obi	-8868
aver	-8869
▁Nep	-8870
▁brig	-8871
teenth	-8872
▁Never	-8873
▁Where	-8874
▁Conservative	-8875
▁rib	-8876
▁owners	-8877
▁proced	-8878
▁purchase	-8879
eep	-8880
▁Sultan	-8881
▁tennis	-8882
▁Protest	-8883
▁ashamed	-8884
▁residence	-8885
rible	-8886
▁ille	-8887
ipping	-8888
▁Sammy	-8889
▁clown	-8890
▁damaged	-8891
▁Serbia	-8892
▁consult	-8893
▁reality	-8894
hop	-8895
▁Cuba	-8896
▁Falls	-8897
▁refuge	-8898
▁knowing	-8899
▁survived	-8900
SU	-8901
▁Anti	-8902
▁Josh	-8903
▁cozy	-8904
▁Mayor	-8905
▁Agency	-8906
▁pretended	-8907
▁Communications	-8908
non	-8909
ategy	-8910
▁couch	-8911
▁notice	-8912
42	-8913
orer	-8914
▁subsid	-8915
▁Campbell	-8916
▁AT	-8917
hill	-8918
endar	-8919
▁Lost	-8920
▁carrot	-8921
▁Bernard	-8922
▁scatter	-8923
uctor	-8924
▁gang	-8925
redible	-8926
▁classic	-8927
▁interests	-8928
▁photograph	-8929
oni	-8930
▁SC	-8931
▁Aer	-8932
▁troub	-8933
▁Organization	-8934
akia	-8935
▁Equ	-8936
final	-8937
▁Griff	-8938
▁Associ	-8939
-201	-8940
agar	-8941
castle	-8942
▁Danny	-8943
▁regularly	-8944
▁surrounded	-8945
▁distributed	-8946
▁Next	-8947
▁Camer	-8948
▁moves	-8949
illiant	-8950
▁Freedom	-8951
▁Convention	-8952
dist	-8953
▁Late	-8954
▁Utah	-8955
▁Ll	-8956
▁Prix	-8957
▁Tiny	-8958
▁Vienna	-8959
▁Electric	-8960
▁Robinson	-8961
SO	-8962
itter	-8963
level	-8964
▁Energy	-8965
▁Report	-8966
▁mountains	-8967
▁composition	-8968
bal	-8969
harm	-8970
▁picnic	-8971
▁Language	-8972
igins	-8973
▁core	-8974
▁brush	-8975
▁wouldn	-8976
▁capture	-8977
▁understanding	-8978
▁Guy	-8979
▁Lov	-8980
▁Lane	-8981
estyle	-8982
▁expand	-8983
▁Classic	-8984
▁Collins	-8985
ovo	-8986
page	-8987
▁Finland	-8988
▁windows	-8989
Stop	-8990
rosc	-8991
▁icy	-8992
▁Hungary	-8993
▁convent	-8994
69	-8995
▁Hab	-8996
▁spr	-8997
▁tube	-8998
master	-8999
▁divor	-9000
▁Weekly	-9001
▁accommod	-9002
▁(9	-9003
▁Beg	-9004
▁DNA	-9005
▁Kon	-9006
▁flu	-9007
▁Digital	-9008
▁chocolate	-9009
▁pie	-9010
▁Carter	-9011
eton	-9012
iture	-9013
▁rice	-9014
▁enorm	-9015
▁views	-9016
▁lights	-9017
▁Academic	-9018
-10	-9019
inea	-9020
yles	-9021
▁Site	-9022
▁1998.	-9023
▁recept	-9024
▁Chamber	-9025
▁designs	-9026
▁trained	-9027
▁Medicine	-9028
▁Training	-9029
▁squadron	-9030
▁Jake	-9031
▁Jenn	-9032
▁Mall	-9033
▁Nova	-9034
▁Chand	-9035
▁meets	-9036
▁Challen	-9037
▁thinking	-9038
▁Afghanistan	-9039
▁underground	-9040
rik	-9041
living	-9042
▁Mother	-9043
▁advice	-9044
▁covering	-9045
▁teachers	-9046
▁Lad	-9047
▁eager	-9048
▁overl	-9049
▁177	-9050
▁Hum	-9051
▁jam	-9052
▁cage	-9053
▁dies	-9054
▁gear	-9055
issors	-9056
▁reduce	-9057
▁accompl	-9058
▁Armenian	-9059
▁credited	-9060
fare	-9061
illo	-9062
▁Vel	-9063
ooked	-9064
▁coffee	-9065
▁Fellows	-9066
▁storage	-9067
Or	-9068
▁Ella	-9069
rafted	-9070
▁Bible	-9071
▁chess	-9072
▁uncom	-9073
estivals	-9074
▁charged	-9075
▁surname	-9076
Gr	-9077
acon	-9078
▁por	-9079
▁Mond	-9080
▁mall	-9081
▁skull	-9082
▁trick	-9083
▁finals	-9084
▁Officer	-9085
▁ownership	-9086
▁tough	-9087
▁Spirit	-9088
▁chicken	-9089
▁degrees	-9090
▁reserve	-9091
▁Muhammad	-9092
▁philosophy	-9093
isb	-9094
vet	-9095
iece	-9096
robe	-9097
▁Bud	-9098
▁Manh	-9099
ellite	-9100
▁goods	-9101
▁Orange	-9102
▁shadow	-9103
▁relieved	-9104
▁experienced	-9105
▁SS	-9106
mith	-9107
▁Ult	-9108
▁bon	-9109
▁fool	-9110
ailand	-9111
▁Tower	-9112
▁decade	-9113
▁arrival	-9114
▁counted	-9115
▁starred	-9116
▁Wrestling	-9117
▁provincial	-9118
▁Tu	-9119
alia	-9120
orial	-9121
▁cats	-9122
▁Seven	-9123
▁Alumni	-9124
▁Hunter	-9125
▁Colonel	-9126
gro	-9127
onder	-9128
▁displ	-9129
▁Invest	-9130
▁circum	-9131
▁channels	-9132
▁CA	-9133
oomy	-9134
ighters	-9135
▁linked	-9136
▁smiling	-9137
▁admitted	-9138
▁magazines	-9139
▁comfortable	-9140
kee	-9141
▁Buc	-9142
▁Ent	-9143
▁Row	-9144
▁relax	-9145
▁assumed	-9146
▁isol	-9147
▁Phoen	-9148
▁drank	-9149
▁stuff	-9150
▁Luther	-9151
▁affected	-9152
▁Move	-9153
▁clin	-9154
▁Palest	-9155
▁correct	-9156
▁balloons	-9157
▁offering	-9158
web	-9159
▁Chem	-9160
▁Emer	-9161
▁bounce	-9162
▁comput	-9163
▁duties	-9164
▁Vermont	-9165
▁rejected	-9166
▁candidates	-9167
gle	-9168
avan	-9169
arest	-9170
▁vary	-9171
▁Robin	-9172
▁Support	-9173
▁graduate	-9174
▁retained	-9175
▁celebrate	-9176
▁delivered	-9177
On	-9178
▁AP	-9179
▁Sid	-9180
asses	-9181
▁males	-9182
▁spaces	-9183
▁designer	-9184
▁soundtrack	-9185
43	-9186
oca	-9187
pha	-9188
▁advoc	-9189
▁Please	-9190
▁committed	-9191
▁statement	-9192
Hel	-9193
▁Iv	-9194
itars	-9195
▁util	-9196
▁survey	-9197
▁Diocese	-9198
MP	-9199
▁Lead	-9200
▁forth	-9201
▁Description	-9202
leans	-9203
▁Salt	-9204
▁spend	-9205
▁Studio	-9206
▁trumpet	-9207
▁Politics	-9208
▁liqu	-9209
ountry	-9210
▁Model	-9211
▁Bristol	-9212
▁splashed	-9213
mate	-9214
inian	-9215
▁brick	-9216
▁witch	-9217
▁Theater	-9218
▁producers	-9219
hero	-9220
▁bitter	-9221
▁interior	-9222
▁Indonesia	-9223
▁otherwise	-9224
abled	-9225
▁Bure	-9226
▁Adams	-9227
▁struck	-9228
RO	-9229
yon	-9230
abad	-9231
▁tidy	-9232
▁Assist	-9233
▁Census	-9234
▁cabinet	-9235
▁advantage	-9236
▁appearing	-9237
▁prisoners	-9238
▁Legislative	-9239
fam	-9240
▁agree	-9241
▁whale	-9242
▁Control	-9243
▁impressive	-9244
rene	-9245
cious	-9246
▁mort	-9247
▁monarch	-9248
▁Fictional	-9249
▁presidential	-9250
izz	-9251
▁Case	-9252
▁Joan	-9253
▁Keith	-9254
▁Tigers	-9255
▁Cricket	-9256
▁interpret	-9257
▁bald	-9258
inding	-9259
▁wagon	-9260
▁Arabic	-9261
▁assass	-9262
▁coastal	-9263
▁arranged	-9264
▁Collection	-9265
▁requirements	-9266
▁stops	-9267
▁Symphony	-9268
▁embarrassed	-9269
Go	-9270
bel	-9271
razy	-9272
Where	-9273
▁Iranian	-9274
▁Days	-9275
▁Unit	-9276
▁solve	-9277
▁bringing	-9278
lete	-9279
▁CBS	-9280
▁lap	-9281
▁sear	-9282
▁polite	-9283
▁scheme	-9284
▁transportation	-9285
ht	-9286
▁Om	-9287
▁Kil	-9288
▁nor	-9289
▁upd	-9290
▁Past	-9291
▁shoe	-9292
▁kilomet	-9293
▁mistake	-9294
▁Mitchell	-9295
iop	-9296
▁Ko	-9297
elta	-9298
folk	-9299
rost	-9300
▁Map	-9301
▁NHL	-9302
▁phen	-9303
ishers	-9304
usting	-9305
lington	-9306
▁accompanied	-9307
▁disestablished	-9308
▁(6	-9309
▁Foot	-9310
▁synthes	-9311
▁Jonathan	-9312
▁enormous	-9313
▁popularity	-9314
▁Ho	-9315
seud	-9316
▁Ald	-9317
▁Joy	-9318
▁emot	-9319
▁Michel	-9320
▁fired	-9321
▁knife	-9322
▁milit	-9323
▁remove	-9324
▁suggests	-9325
▁Companies	-9326
term	-9327
▁coc	-9328
▁Glen	-9329
▁infl	-9330
▁yield	-9331
▁seventh	-9332
▁constituency	-9333
▁Gro	-9334
▁Wed	-9335
itable	-9336
▁thread	-9337
▁dismiss	-9338
▁roughly	-9339
RC	-9340
▁anx	-9341
chang	-9342
▁2023,	-9343
▁hosts	-9344
▁Orleans	-9345
▁6:	-9346
▁Hud	-9347
▁Cold	-9348
▁cone	-9349
▁molec	-9350
▁adding	-9351
▁colonial	-9352
▁classified	-9353
eze	-9354
▁cere	-9355
▁fierce	-9356
▁chapter	-9357
▁tub	-9358
▁check	-9359
▁drawn	-9360
fiction	-9361
▁appropri	-9362
▁downtown	-9363
▁percussion	-9364
itic	-9365
▁Obs	-9366
▁fer	-9367
▁flute	-9368
▁peaked	-9369
▁Reserve	-9370
▁Portland	-9371
▁Thailand	-9372
▁exploring	-9373
otan	-9374
ibbean	-9375
▁stable	-9376
▁reliable	-9377
▁participate	-9378
▁NBC	-9379
▁Benj	-9380
resents	-9381
▁Communist	-9382
▁secretary	-9383
▁†	-9384
anas	-9385
▁barn	-9386
▁noisy	-9387
▁scarf	-9388
▁screamed	-9389
.'	-9390
sa	-9391
iors	-9392
▁Adela	-9393
▁Bangl	-9394
▁Terry	-9395
▁riding	-9396
ilst	-9397
▁preced	-9398
▁therap	-9399
▁keeping	-9400
▁turning	-9401
▁Richmond	-9402
▁extremely	-9403
ocal	-9404
▁Tol	-9405
▁Near	-9406
▁reun	-9407
▁2017.	-9408
▁videos	-9409
▁significantly	-9410
ES	-9411
How	-9412
rise	-9413
▁Saf	-9414
▁Chel	-9415
▁walks	-9416
▁garage	-9417
▁runner	-9418
▁volcano	-9419
▁scissors	-9420
▁spiritual	-9421
aments	-9422
eoples	-9423
▁1989,	-9424
▁cited	-9425
▁holid	-9426
▁tiger	-9427
pective	-9428
▁anchor	-9429
▁generous	-9430
▁challenge	-9431
▁membership	-9432
▁unsuccessful	-9433
▁1937	-9434
▁Derby	-9435
writers	-9436
▁sailed	-9437
▁accused	-9438
▁reception	-9439
unes	-9440
▁extr	-9441
▁1996.	-9442
▁factor	-9443
▁Defunct	-9444
▁Yorkshire	-9445
▁qualified	-9446
▁expression	-9447
▁signs	-9448
▁handle	-9449
▁Private	-9450
▁streets	-9451
▁Originally	-9452
ivan	-9453
▁Doc	-9454
▁rod	-9455
rella	-9456
incinn	-9457
▁accur	-9458
▁initi	-9459
▁Giants	-9460
inations	-9461
▁Indians	-9462
▁spotted	-9463
▁Cathedral	-9464
▁Ric	-9465
▁arc	-9466
▁Look	-9467
▁mixing	-9468
▁Hom	-9469
▁Liga	-9470
▁poems	-9471
▁adaptation	-9472
DF	-9473
▁hears	-9474
General	-9475
▁Return	-9476
▁Saints	-9477
▁talent	-9478
▁bathroom	-9479
▁criticized	-9480
▁Additionally	-9481
▁Municipality	-9482
gio	-9483
▁Has	-9484
▁loop	-9485
▁banks	-9486
▁wooden	-9487
And	-9488
haus	-9489
othy	-9490
▁Hir	-9491
▁weird	-9492
▁compris	-9493
▁interested	-9494
Max	-9495
een	-9496
Star	-9497
pered	-9498
▁Soul	-9499
▁sque	-9500
enburg	-9501
▁anime	-9502
▁dating	-9503
incinnati	-9504
▁replacing	-9505
inces	-9506
▁Fish	-9507
▁Gray	-9508
▁sheet	-9509
▁Serbian	-9510
▁context	-9511
▁coaching	-9512
▁legislation	-9513
▁$1	-9514
▁inher	-9515
▁(2006)	-9516
formance	-9517
▁landing	-9518
▁transition	-9519
iah	-9520
hand	-9521
ikes	-9522
illar	-9523
▁1935	-9524
▁Aren	-9525
▁chew	-9526
▁Plant	-9527
▁barrel	-9528
▁theore	-9529
▁undert	-9530
▁Marshall	-9531
▁Buffalo	-9532
▁bridges	-9533
▁testing	-9534
▁valuable	-9535
▁represents	-9536
bie	-9537
▁(8	-9538
mates	-9539
▁explos	-9540
▁opinion	-9541
▁perhaps	-9542
▁Dyn	-9543
▁plus	-9544
▁Grace	-9545
▁Dragon	-9546
▁medium	-9547
▁Standard	-9548
iest	-9549
urers	-9550
▁Monte	-9551
▁factors	-9552
▁brilliant	-9553
▁motorcycle	-9554
▁agriculture	-9555
igl	-9556
orge	-9557
▁cris	-9558
▁tack	-9559
▁alleg	-9560
▁entering	-9561
▁practiced	-9562
▁references	-9563
load	-9564
obby	-9565
▁lazy	-9566
▁Urban	-9567
▁closet	-9568
▁diamond	-9569
Sw	-9570
All	-9571
▁Bapt	-9572
▁Jess	-9573
▁lifted	-9574
▁scream	-9575
▁missions	-9576
ogs	-9577
▁64	-9578
▁insc	-9579
usalem	-9580
▁Maced	-9581
▁Alaska	-9582
3).	-9583
aku	-9584
▁parks	-9585
▁Soph	-9586
▁dull	-9587
isition	-9588
▁carbon	-9589
▁filmed	-9590
released	-9591
▁instance	-9592
▁publications	-9593
2).	-9594
▁Craig	-9595
▁Trophy	-9596
▁dinosaur	-9597
▁maintenance	-9598
▁Heb	-9599
ubble	-9600
▁furry	-9601
▁users	-9602
▁Actress	-9603
Who	-9604
mat	-9605
▁(5	-9606
▁Init	-9607
▁cous	-9608
▁Steel	-9609
▁cycle	-9610
assador	-9611
▁Steven	-9612
▁Warner	-9613
▁washed	-9614
▁Adelaide	-9615
▁assistance	-9616
▁communication	-9617
▁Aber	-9618
▁terminus	-9619
▁frequency	-9620
▁scientists	-9621
▁1995.	-9622
▁Along	-9623
▁severe	-9624
▁stages	-9625
▁weekly	-9626
▁regiment	-9627
▁orchestra	-9628
atern	-9629
▁penc	-9630
▁2018.	-9631
▁Abbey	-9632
▁hello	-9633
▁existed	-9634
▁Manhattan	-9635
▁publishing	-9636
▁cher	-9637
▁Defence	-9638
▁differences	-9639
▁1918	-9640
▁smoke	-9641
▁Cincinnati	-9642
▁replacement	-9643
urop	-9644
▁Ess	-9645
build	-9646
inter	-9647
▁glue	-9648
▁magn	-9649
▁Ducky	-9650
▁medals	-9651
▁Eventually	-9652
▁CEO	-9653
▁Fab	-9654
issue	-9655
▁diagn	-9656
rations	-9657
▁horror	-9658
▁spoken	-9659
raz	-9660
▁44	-9661
▁9.	-9662
▁Lan	-9663
▁pron	-9664
▁Nevada	-9665
▁disturb	-9666
▁Arkansas	-9667
bai	-9668
▁boot	-9669
▁indicate	-9670
oof	-9671
▁(7	-9672
▁Ru	-9673
▁Aqu	-9674
▁orn	-9675
▁Type	-9676
▁wheels	-9677
isations	-9678
▁platforms	-9679
-7	-9680
▁Ral	-9681
▁Fitz	-9682
▁rhythm	-9683
iri	-9684
▁MA	-9685
▁Was	-9686
▁alt	-9687
owder	-9688
encing	-9689
▁Marie	-9690
▁capable	-9691
▁Meanwhile	-9692
▁criticism	-9693
▁touchdown	-9694
▁Lux	-9695
▁Toy	-9696
▁Rena	-9697
▁Tourn	-9698
▁straw	-9699
ductions	-9700
▁collaboration	-9701
olds	-9702
pers	-9703
span	-9704
▁pin	-9705
▁fragile	-9706
▁withdraw	-9707
▁manufacturing	-9708
NC	-9709
eta	-9710
▁bes	-9711
▁cartoon	-9712
▁frustrated	-9713
▁businessman	-9714
olia	-9715
▁dug	-9716
▁remix	-9717
▁renew	-9718
ictions	-9719
winning	-9720
▁tasted	-9721
▁Section	-9722
▁longest	-9723
▁disappeared	-9724
MC	-9725
▁Euro	-9726
▁Soft	-9727
ophone	-9728
▁cheap	-9729
▁Knights	-9730
▁stronger	-9731
▁vegetables	-9732
1).	-9733
atur	-9734
▁Eug	-9735
anner	-9736
▁Page	-9737
▁doors	-9738
▁Ancient	-9739
▁Literature	-9740
▁Lud	-9741
▁Mack	-9742
▁fright	-9743
▁missile	-9744
abilities	-9745
▁solution	-9746
▁thousands	-9747
▁ol	-9748
door	-9749
▁Azer	-9750
▁vert	-9751
finals	-9752
▁Baker	-9753
▁Belgian	-9754
IP	-9755
body	-9756
ders	-9757
▁1929	-9758
rehens	-9759
▁deleg	-9760
▁Unlike	-9761
▁institution	-9762
LB	-9763
▁Mi	-9764
▁Rio	-9765
otype	-9766
▁mining	-9767
▁resign	-9768
▁movements	-9769
▁friendship	-9770
▁Sha	-9771
▁Limited	-9772
▁Caribbean	-9773
▁landscape	-9774
▁recommend	-9775
▁expedition	-9776
SD	-9777
▁broadcasting	-9778
▁user	-9779
▁jungle	-9780
▁enh	-9781
▁sed	-9782
▁Bund	-9783
▁rend	-9784
▁Judge	-9785
▁knows	-9786
▁raced	-9787
amental	-9788
▁crossed	-9789
▁devices	-9790
▁Economic	-9791
arked	-9792
aware	-9793
▁crack	-9794
▁telling	-9795
▁flexible	-9796
▁successor	-9797
▁occupation	-9798
athy	-9799
▁Beh	-9800
ivated	-9801
▁penalty	-9802
▁Pictures	-9803
▁subjects	-9804
▁temporary	-9805
profit	-9806
▁Benjamin	-9807
▁requires	-9808
▁determine	-9809
▁incredible	-9810
▁territories	-9811
▁hen	-9812
▁oct	-9813
ridge	-9814
▁Stre	-9815
▁vine	-9816
ellect	-9817
▁credit	-9818
▁Princip	-9819
▁universe	-9820
corn	-9821
lace	-9822
▁1927	-9823
▁Epis	-9824
▁flour	-9825
▁manga	-9826
▁gathered	-9827
▁defeating	-9828
▁contributions	-9829
vi	-9830
lem	-9831
▁1914	-9832
▁Peru	-9833
▁gigg	-9834
▁Stage	-9835
▁distant	-9836
▁segment	-9837
▁Technical	-9838
NT	-9839
asm	-9840
▁umb	-9841
▁locked	-9842
▁shopping	-9843
▁infrastructure	-9844
▁Sad	-9845
▁Sic	-9846
▁Bron	-9847
▁Shel	-9848
▁flows	-9849
▁Senator	-9850
▁concerns	-9851
▁offensive	-9852
▁entertainment	-9853
Ind	-9854
ribed	-9855
▁Brew	-9856
▁Fleet	-9857
▁Charts	-9858
▁Number	-9859
▁relief	-9860
▁towers	-9861
▁relative	-9862
▁Jerusalem	-9863
▁Provincial	-9864
▁registered	-9865
oro	-9866
▁46	-9867
nett	-9868
▁Bulgar	-9869
▁Deputy	-9870
▁authors	-9871
▁bedroom	-9872
▁injuries	-9873
▁arrow	-9874
▁justice	-9875
itis	-9876
▁nic	-9877
▁Luis	-9878
▁sight	-9879
▁Branch	-9880
▁comune	-9881
▁credits	-9882
▁memorial	-9883
▁construct	-9884
One	-9885
pat	-9886
uka	-9887
▁SF	-9888
▁measures	-9889
cho	-9890
▁goat	-9891
▁Gabri	-9892
▁Minor	-9893
▁lists	-9894
▁Buddhist	-9895
–10	-9896
ints	-9897
▁Fif	-9898
▁Goo	-9899
▁crop	-9900
▁moms	-9901
▁package	-9902
▁wounded	-9903
rob	-9904
▁Bond	-9905
▁meal	-9906
ranean	-9907
▁scare	-9908
▁counties	-9909
iko	-9910
umi	-9911
arted	-9912
▁1928	-9913
▁Poet	-9914
▁Chang	-9915
▁Warren	-9916
▁aspects	-9917
fast	-9918
▁Buch	-9919
ranger	-9920
▁1986,	-9921
▁Leeds	-9922
▁opens	-9923
▁Around	-9924
▁changing	-9925
ün	-9926
▁1934	-9927
▁Pink	-9928
▁gene	-9929
▁Friends	-9930
▁belongs	-9931
▁MD	-9932
upid	-9933
▁Action	-9934
▁Dennis	-9935
▁Capital	-9936
▁Phoenix	-9937
▁battery	-9938
▁Harrison	-9939
▁exception	-9940
▁responsibility	-9941
oric	-9942
agers	-9943
enses	-9944
▁View	-9945
▁therm	-9946
▁berries	-9947
▁struggle	-9948
▁controversy	-9949
EP	-9950
▁47	-9951
▁1987,	-9952
▁Finnish	-9953
▁instrumental	-9954
▁Stu	-9955
▁liz	-9956
usted	-9957
▁vase	-9958
enberg	-9959
▁honour	-9960
▁Argentine	-9961
hl	-9962
pent	-9963
▁naval	-9964
▁manner	-9965
▁printed	-9966
▁Nicholas	-9967
▁elevation	-9968
mo	-9969
ygen	-9970
▁Jama	-9971
▁Drive	-9972
▁amateur	-9973
▁restrict	-9974
▁Cad	-9975
▁Celt	-9976
▁Golf	-9977
▁Prop	-9978
arming	-9979
▁disag	-9980
country	-9981
▁option	-9982
▁UC	-9983
Help	-9984
West	-9985
ework	-9986
▁1908	-9987
▁Muslims	-9988
▁romantic	-9989
▁practices	-9990
▁Pant	-9991
▁Denver	-9992
▁comics	-9993
▁prohib	-9994
rat	-9995
▁SP	-9996
okes	-9997
▁obl	-9998
raska	-9999
▁Bass	-10000
▁Grey	-10001
▁Small	-10002
▁Stevens	-10003
▁reaches	-10004
▁somewhat	-10005
▁technique	-10006
–5	-10007
▁Know	-10008
▁http	-10009
ewhere	-10010
▁Eddie	-10011
▁acted	-10012
▁guess	-10013
▁crisis	-10014
▁policies	-10015
▁visitors	-10016
obb	-10017
mosp	-10018
yers	-10019
▁pian	-10020
▁Guinea	-10021
▁Barbara	-10022
struction	-10023
▁Gw	-10024
▁NA	-10025
ario	-10026
ourg	-10027
pass	-10028
▁Dub	-10029
▁Len	-10030
▁1910	-10031
▁stub	-10032
commun	-10033
▁Rabbi	-10034
▁Until	-10035
▁junction	-10036
▁encouraged	-10037
rip	-10038
vere	-10039
▁tap	-10040
▁Note	-10041
▁beet	-10042
▁wrap	-10043
▁prime	-10044
▁rating	-10045
▁decides	-10046
▁incorpor	-10047
mund	-10048
▁1921	-10049
▁Buck	-10050
▁alco	-10051
▁Madrid	-10052
▁ensure	-10053
▁expect	-10054
▁Edwards	-10055
▁Prefect	-10056
▁spoiled	-10057
▁creature	-10058
▁processes	-10059
▁interchange	-10060
▁jurisdiction	-10061
▁Esp	-10062
5,000	-10063
▁hose	-10064
person	-10065
▁LP	-10066
bird	-10067
▁120	-10068
▁Rat	-10069
▁Set	-10070
▁phr	-10071
▁Computer	-10072
▁executed	-10073
ser	-10074
▁75	-10075
▁Lion	-10076
itched	-10077
▁Admir	-10078
▁harsh	-10079
▁Bright	-10080
▁congress	-10081
uru	-10082
stad	-10083
▁Mak	-10084
▁Rav	-10085
keley	-10086
▁1932	-10087
called	-10088
▁victims	-10089
▁wedding	-10090
▁portrayed	-10091
▁components	-10092
▁personality	-10093
phan	-10094
udes	-10095
▁mild	-10096
▁Serge	-10097
▁alive	-10098
▁Azerbai	-10099
▁artillery	-10100
Se	-10101
rock	-10102
▁fal	-10103
music	-10104
pping	-10105
▁1994.	-10106
▁mobile	-10107
▁convicted	-10108
cm	-10109
oven	-10110
▁Pil	-10111
later	-10112
▁Shan	-10113
▁airl	-10114
▁Patri	-10115
▁salad	-10116
▁Dakota	-10117
▁Within	-10118
▁3-	-10119
encer	-10120
▁1933	-10121
▁tact	-10122
igrated	-10123
▁Economy	-10124
Amendment	-10125
▁patterns	-10126
▁terrible	-10127
▁attractive	-10128
▁populations	-10129
chair	-10130
▁taxi	-10131
▁movies	-10132
▁Greater	-10133
mod	-10134
▁Ivan	-10135
▁poets	-10136
ED	-10137
tti	-10138
atha	-10139
▁Hit	-10140
▁Vas	-10141
ontin	-10142
▁Grade	-10143
▁brace	-10144
▁Online	-10145
▁debuted	-10146
▁supplies	-10147
▁keyboards	-10148
irate	-10149
▁Race	-10150
Donald	-10151
flower	-10152
▁modified	-10153
Ben	-10154
▁4-	-10155
▁load	-10156
▁Turner	-10157
▁Winners	-10158
▁Salv	-10159
▁pour	-10160
▁innov	-10161
▁pepper	-10162
▁Christianity	-10163
icon	-10164
▁Pay	-10165
▁Hann	-10166
▁disg	-10167
cyclop	-10168
▁Ghost	-10169
▁judges	-10170
▁writes	-10171
▁bicycle	-10172
▁attorney	-10173
▁drawings	-10174
▁Publications	-10175
▁organisation	-10176
orted	-10177
▁root	-10178
▁2020.	-10179
▁shout	-10180
▁Anglic	-10181
▁emergency	-10182
nan	-10183
▁#1	-10184
▁12.	-10185
▁Kay	-10186
▁Nam	-10187
▁Sah	-10188
▁eth	-10189
▁yarn	-10190
▁Fight	-10191
▁filed	-10192
▁mighty	-10193
▁rolling	-10194
▁monument	-10195
▁considerable	-10196
zh	-10197
▁cou	-10198
▁Luke	-10199
▁Trad	-10200
▁Costa	-10201
▁audio	-10202
▁lying	-10203
▁rates	-10204
▁roots	-10205
▁trunk	-10206
▁pitcher	-10207
▁boundary	-10208
▁Apple	-10209
▁Storm	-10210
▁hammer	-10211
▁commemor	-10212
▁constant	-10213
▁43	-10214
itime	-10215
▁soul	-10216
▁lasted	-10217
▁heritage	-10218
▁households	-10219
▁Expl	-10220
▁Athens	-10221
▁tornado	-10222
pir	-10223
ère	-10224
▁Bes	-10225
▁Byz	-10226
▁Yam	-10227
▁gay	-10228
▁Kirk	-10229
▁bake	-10230
▁Betty	-10231
▁extens	-10232
▁reward	-10233
Tr	-10234
4).	-10235
idad	-10236
▁nuts	-10237
▁hills	-10238
atabase	-10239
▁burned	-10240
▁thanks	-10241
▁Charlotte	-10242
▁Universal	-10243
Ph	-10244
SW	-10245
asi	-10246
ums	-10247
▁Say	-10248
icate	-10249
▁seal	-10250
coming	-10251
▁Ralph	-10252
▁depth	-10253
▁valid	-10254
▁satisf	-10255
▁Chairman	-10256
▁Victorian	-10257
▁historians	-10258
La	-10259
haw	-10260
igo	-10261
▁hip	-10262
▁blow	-10263
▁Parks	-10264
osaurus	-10265
▁assess	-10266
▁yelled	-10267
▁Alt	-10268
ocking	-10269
▁Horse	-10270
▁texts	-10271
▁Parker	-10272
▁seeing	-10273
88	-10274
Sam	-10275
ige	-10276
▁CR	-10277
▁Cha	-10278
▁Kum	-10279
▁Pul	-10280
trans	-10281
▁Neigh	-10282
▁Croatia	-10283
▁Faculty	-10284
▁suicide	-10285
forcement	-10286
▁classification	-10287
▁Tas	-10288
▁Sask	-10289
▁canc	-10290
▁rode	-10291
▁2019.	-10292
▁Brisb	-10293
▁recre	-10294
▁Thunder	-10295
▁Municipal	-10296
▁Goth	-10297
▁biography	-10298
▁demolished	-10299
otton	-10300
▁1922	-10301
▁Hope	-10302
ribute	-10303
▁1988,	-10304
▁(2005)	-10305
▁expert	-10306
▁mental	-10307
HA	-10308
▁Obl	-10309
▁Banks	-10310
▁venue	-10311
▁Bureau	-10312
▁Edition	-10313
▁forming	-10314
▁Colombia	-10315
▁fountain	-10316
▁daughters	-10317
▁×	-10318
auge	-10319
ctic	-10320
▁Mong	-10321
▁Hawaii	-10322
▁strategy	-10323
▁Industrial	-10324
▁journalists	-10325
ör	-10326
comp	-10327
vant	-10328
▁Cond	-10329
edient	-10330
▁Nature	-10331
▁nations	-10332
▁plastic	-10333
▁vessels	-10334
▁licensed	-10335
but	-10336
rox	-10337
ugs	-10338
▁Kle	-10339
▁Schol	-10340
▁Oliver	-10341
▁banana	-10342
▁foolish	-10343
▁guitars	-10344
▁Nebraska	-10345
▁strongly	-10346
arus	-10347
▁Cit	-10348
▁Kenn	-10349
▁towel	-10350
▁agencies	-10351
yes	-10352
▁(10	-10353
▁Pra	-10354
▁Kate	-10355
▁fled	-10356
Station	-10357
▁Pierre	-10358
▁Manager	-10359
▁Brisbane	-10360
opus	-10361
–195	-10362
▁mac	-10363
▁nurse	-10364
ossible	-10365
▁democr	-10366
▁discip	-10367
▁shares	-10368
▁Norfolk	-10369
▁exciting	-10370
▁discovery	-10371
▁41	-10372
isor	-10373
▁Cart	-10374
▁Magn	-10375
inction	-10376
▁copper	-10377
▁serial	-10378
▁Artists	-10379
▁formally	-10380
▁reputation	-10381
▁Oil	-10382
merce	-10383
▁(191	-10384
ounced	-10385
▁Sheff	-10386
▁Legacy	-10387
▁parade	-10388
▁suspended	-10389
7).	-10390
oks	-10391
ducer	-10392
▁Mars	-10393
▁Exper	-10394
▁crazy	-10395
▁Nation	-10396
▁bubbles	-10397
▁visiting	-10398
én	-10399
hum	-10400
kov	-10401
ilia	-10402
inus	-10403
terior	-10404
▁bloom	-10405
▁dizzy	-10406
▁Wednes	-10407
know	-10408
lett	-10409
oard	-10410
▁160	-10411
▁nav	-10412
raham	-10413
▁Norm	-10414
▁aunt	-10415
▁tempor	-10416
▁stubborn	-10417
▁Additional	-10418
▁eliminated	-10419
▁investment	-10420
iya	-10421
imon	-10422
▁trap	-10423
▁Arena	-10424
▁Hudson	-10425
▁fastest	-10426
▁breaking	-10427
▁Population	-10428
opes	-10429
▁Hugh	-10430
▁dust	-10431
▁mask	-10432
▁Moroc	-10433
▁boxes	-10434
▁tooth	-10435
roe	-10436
ifts	-10437
ulum	-10438
▁170	-10439
▁Amaz	-10440
estone	-10441
▁(2007)	-10442
▁Altern	-10443
▁Trinity	-10444
▁forests	-10445
▁Encyclop	-10446
▁annually	-10447
▁midfield	-10448
rots	-10449
▁Ruth	-10450
▁sauce	-10451
▁analog	-10452
▁trophy	-10453
▁delicate	-10454
sec	-10455
achi	-10456
aris	-10457
▁Bert	-10458
▁poison	-10459
▁Critical	-10460
▁Students	-10461
";	-10462
63	-10463
tons	-10464
▁1993.	-10465
ocation	-10466
▁Frances	-10467
▁prepare	-10468
▁searched	-10469
igs	-10470
arts	-10471
mary	-10472
▁Ori	-10473
▁hats	-10474
▁overse	-10475
▁acoustic	-10476
▁apartment	-10477
▁Indianapolis	-10478
yt	-10479
uis	-10480
etch	-10481
▁Tag	-10482
▁Deep	-10483
▁Much	-10484
▁Brand	-10485
▁releases	-10486
aco	-10487
▁SI	-10488
hour	-10489
nell	-10490
▁Isa	-10491
▁Kap	-10492
emble	-10493
owski	-10494
▁Cork	-10495
mediate	-10496
▁manage	-10497
▁Wallace	-10498
MI	-10499
▁Tib	-10500
rocod	-10501
▁Wang	-10502
▁Warri	-10503
▁Murphy	-10504
▁harder	-10505
▁affairs	-10506
▁collections	-10507
,”	-10508
5).	-10509
▁Od	-10510
Here	-10511
atin	-10512
▁1992.	-10513
▁Apoll	-10514
▁Magic	-10515
▁wrest	-10516
▁Flight	-10517
▁modest	-10518
Ex	-10519
hyd	-10520
ulus	-10521
urous	-10522
▁Neil	-10523
▁desk	-10524
levard	-10525
ushroom	-10526
▁decline	-10527
▁Protestant	-10528
▁frightened	-10529
incorporated	-10530
iege	-10531
▁neut	-10532
▁admin	-10533
▁Harold	-10534
▁Aviation	-10535
▁preserved	-10536
▁arrangement	-10537
▁controversial	-10538
jab	-10539
▁Ja	-10540
▁rif	-10541
ester	-10542
ectors	-10543
election	-10544
▁reverse	-10545
iterranean	-10546
▁influential	-10547
▁occasionally	-10548
OC	-10549
▁2–1	-10550
Mommy	-10551
flies	-10552
▁1924	-10553
pillar	-10554
▁Berkeley	-10555
▁experiences	-10556
▁Arc	-10557
aters	-10558
▁Clay	-10559
urrent	-10560
▁	-10561
e	-10562
a	-10563
t	-10564
o	-10565
n	-10566
i	-10567
r	-10568
s	-10569
h	-10570
d	-10571
l	-10572
c	-10573
u	-10574
m	-10575
y	-10576
f	-10577
p	-10578
g	-10579
w	-10580
.	-10581
b	-10582
,	-10583
v	-10584
k	-10585
T	-10586
S	-10587
1	-10588
A	-10589
"	-10590
C	-10591
0	-10592
M	-10593
I	-10594
9	-10595
B	-10596
H	-10597
2	-10598
x	-10599
L	-10600
P	-10601
-	-10602
)	-10603
(	-10604
R	-10605
'	-10606
O	-10607
D	-10608
F	-10609
W	-10610
|	-10611
N	-10612
E	-10613
G	-10614
8	-10615
J	-10616
3	-10617
5	-10618
6	-10619
7	-10620
z	-10621
4	-10622
j	-10623
K	-10624
U	-10625
–	-10626
:	-10627
!	-10628
V	-10629
q	-10630
Y	-10631
>	-10632
<	-10633
;	-10634
?	-10635
/	-10636
Z	-10637
 	-10638
%	-10639
Q	-10640
é	-10641
&	-10642
=	-10643
—	-10644
X	-10645
’	-10646
á	-10647
”	-10648
“	-10649
$	-10650
#	-10651
ü	-10652
í	-10653
]	-10654
[	-10655
ó	-10656
ö	-10657
+	-10658
ä	-10659
ō	-10660
ć	-10661
ā	-10662
è	-10663
*	-10664
š	-10665
ç	-10666
ñ	-10667
ı	-10668
č	-10669
£	-10670
а	-10671
ø	-10672
о	-10673
и	-10674
ł	-10675
ã	-10676
ú	-10677
É	-10678
â	-10679
_	-10680
°	-10681
е	-10682
н	-10683
ū	-10684
}	-10685
à	-10686
‘	-10687
р	-10688
ă	-10689
ş	-10690
α	-10691
×	-10692
с	-10693
к	-10694
ž	-10695
å	-10696
†	-10697
ș	-10698
ß	-10699
{	-10700
т	-10701
−	-10702
ô	-10703
ī	-10704
в	-10705
ë	-10706
ń	-10707
л	-10708
Š	-10709
æ	-10710
ê	-10711
ο	-10712
~	-10713
ğ	-10714
ν	-10715
Á	-10716
→	-10717
τ	-10718
€	-10719
ř	-10720
…	-10721
д	-10722
Ö	-10723
β	-10724
у	-10725
ý	-10726
й	-10727
ι	-10728
ε	-10729
ا	-10730
@	-10731
ś	-10732
ρ	-10733
Č	-10734
ě	-10735
м	-10736
Ç	-10737
ï	-10738
μ	-10739
½	-10740
Ž	-10741
ț	-10742
ς	-10743
σ	-10744
ー	-10745
î	-10746
κ	-10747
Ó	-10748
ò	-10749
я	-10750
Đ	-10751
•	-10752
ð	-10753
г	-10754
İ	-10755
λ	-10756
Ō	-10757
π	-10758
п	-10759
ę	-10760
ì	-10761
Å	-10762
ь	-10763
²	-10764
ы	-10765
ل	-10766
б	-10767
ė	-10768
đ	-10769
ù	-10770
Ø	-10771
ʼ	-10772
з	-10773
η	-10774
ē	-10775
Ş	-10776
С	-10777
·	-10778
γ	-10779
ч	-10780
ر	-10781
ő	-10782
υ	-10783
Ś	-10784
Ü	-10785
ʻ	-10786
Ł	-10787
の	-10788
ą	-10789
Æ	-10790
ṭ	-10791
ω	-10792
ṇ	-10793
ḥ	-10794
्	-10795
õ	-10796
ə	-10797
§	-10798
ư	-10799
х	-10800
ż	-10801
`	-10802
ί	-10803
К	-10804
م	-10805
δ	-10806
ц	-10807
ṣ	-10808
«	-10809
ा	-10810
»	-10811
ن	-10812
П	-10813
ա	-10814
′	-10815
语	-10816
М	-10817
\	-10818
і	-10819
ň	-10820
θ	-10821
ό	-10822
ي	-10823
و	-10824
А	-10825
ά	-10826
י	-10827
В	-10828
Ú	-10829
د	-10830
ʿ	-10831
ш	-10832
ン	-10833
ơ	-10834
ź	-10835
ب	-10836
र	-10837
û	-10838
Ā	-10839
ж	-10840
Б	-10841
±	-10842
ạ	-10843
Н	-10844
φ	-10845
œ	-10846
Ż	-10847
έ	-10848
ľ	-10849
 	-10850
″	-10851
Î	-10852
大	-10853
ی	-10854
ა	-10855
ו	-10856
。	-10857
Δ	-10858
^	-10859
ů	-10860
´	-10861
س	-10862
त	-10863
Ä	-10864
Р	-10865
ễ	-10866
ύ	-10867
ệ	-10868
천	-10869
И	-10870
म	-10871
ṃ	-10872
χ	-10873
ი	-10874
া	-10875
்	-10876
Í	-10877
ţ	-10878
Д	-10879
ն	-10880
Т	-10881
ị	-10882
Г	-10883
ר	-10884
ル	-10885
ت	-10886
ه	-10887
Ḥ	-10888
い	-10889
ŋ	-10890
・	-10891
Α	-10892
व	-10893
ɛ	-10894
ή	-10895
א	-10896
ि	-10897
О	-10898
ф	-10899
ế	-10900
Ć	-10901
ה	-10902
人	-10903
न	-10904
า	-10905
क	-10906
ら	-10907
王	-10908
ր	-10909
ラ	-10910
山	-10911
Ș	-10912
ю	-10913
Γ	-10914
Þ	-10915
り	-10916
ス	-10917
Σ	-10918
ق	-10919
َ	-10920
্	-10921
º	-10922
し	-10923
ʔ	-10924
天	-10925
¢	-10926
ع	-10927
स	-10928
ả	-10929
„	-10930
中	-10931
ť	-10932
Ε	-10933
ớ	-10934
ồ	-10935
ǫ	-10936
ː	-10937
Л	-10938
ե	-10939
র	-10940
ọ	-10941
‑	-10942
学	-10943
本	-10944
ف	-10945
ร	-10946
ṛ	-10947
ộ	-10948
ἐ	-10949
と	-10950
ל	-10951
リ	-10952
¡	-10953
Κ	-10954
ǎ	-10955
य	-10956
一	-10957
的	-10958
ج	-10959
イ	-10960
ッ	-10961
子	-10962
À	-10963
ב	-10964
ु	-10965
े	-10966
ầ	-10967
⟨	-10968
⟩	-10969
ク	-10970
ト	-10971
樂	-10972
µ	-10973
מ	-10974
ს	-10975
ḍ	-10976
き	-10977
ÿ	-10978
ɔ	-10979
ة	-10980
ح	-10981
ア	-10982
ʾ	-10983
́	-10984
Π	-10985
น	-10986
日	-10987
ˈ	-10988
ת	-10989
ी	-10990
ὐ	-10991
ῖ	-10992
ո	-10993
प	-10994
マ	-10995
小	-10996
þ	-10997
ώ	-10998
ἀ	-10999
た	-11000
̀	-11001
З	-11002
ש	-11003
อ	-11004
ɩ	-11005
ξ	-11006
ি	-11007
ὶ	-11008
‡	-11009
≈	-11010
³	-11011
ე	-11012
《	-11013
》	-11014
ド	-11015
高	-11016
У	-11017
་	-11018
ṅ	-11019
‐	-11020
う	-11021
も	-11022
や	-11023
ų	-11024
ŵ	-11025
Μ	-11026
Τ	-11027
Е	-11028
ի	-11029
ῦ	-11030
ش	-11031
ъ	-11032
ल	-11033
ố	-11034
な	-11035
三	-11036
西	-11037
ব	-11038
∞	-11039
ジ	-11040
武	-11041
～	-11042
ŭ	-11043
ʊ	-11044
ม	-11045
ん	-11046
田	-11047
公	-11048
김	-11049
씨	-11050
Ñ	-11051
ħ	-11052
э	-11053
ј	-11054
द	-11055
ấ	-11056
≤	-11057
シ	-11058
十	-11059
南	-11060
安	-11061
平	-11062
¥	-11063
ד	-11064
こ	-11065
이	-11066
ह	-11067
്	-11068
る	-11069
テ	-11070
校	-11071
Â	-11072
ע	-11073
ক	-11074
ন	-11075
ง	-11076
მ	-11077
≥	-11078
か	-11079
林	-11080
道	-11081
ũ	-11082
ǝ	-11083
Ο	-11084
щ	-11085
ё	-11086
ւ	-11087
כ	-11088
ز	-11089
ك	-11090
ं	-11091
ิ	-11092
ო	-11093
♭	-11094
ロ	-11095
国	-11096
團	-11097
州	-11098
ǐ	-11099
Ț	-11100
خ	-11101
რ	-11102
ờ	-11103
―	-11104
　	-11105
タ	-11106
和	-11107
手	-11108
新	-11109
法	-11110
ั	-11111
は	-11112
李	-11113
ɨ	-11114
Ν	-11115
Ф	-11116
Ч	-11117
ग	-11118
ে	-11119
ி	-11120
เ	-11121
文	-11122
明	-11123
東	-11124
，	-11125
Φ	-11126
פ	-11127
ِ	-11128
ল	-11129
ợ	-11130
さ	-11131
華	-11132
ŏ	-11133
ψ	-11134
च	-11135
ว	-11136
₹	-11137
ち	-11138
レ	-11139
之	-11140
克	-11141
年	-11142
愛	-11143
星	-11144
海	-11145
대	-11146
왕	-11147
Λ	-11148
ζ	-11149
Ш	-11150
ज	-11151
দ	-11152
ล	-11153
ậ	-11154
て	-11155
地	-11156
阿	-11157
사	-11158
Ř	-11159
Θ	-11160
Ω	-11161
Ọ	-11162
あ	-11163
ゃ	-11164
國	-11165
士	-11166
金	-11167
ď	-11168
ɑ	-11169
ो	-11170
க	-11171
ம	-11172
่	-11173
უ	-11174
ὸ	-11175
∈	-11176
城	-11177
心	-11178
氏	-11179
立	-11180
行	-11181
부	-11182
©	-11183
ս	-11184
ם	-11185
ط	-11186
ர	-11187
ா	-11188
ส	-11189
カ	-11190
ャ	-11191
上	-11192
北	-11193
我	-11194
空	-11195
美	-11196
里	-11197
陽	-11198
龍	-11199
：	-11200
¿	-11201
ן	-11202
ก	-11203
ბ	-11204
ლ	-11205
ḫ	-11206
世	-11207
会	-11208
女	-11209
尔	-11210
德	-11211
斯	-11212
社	-11213
神	-11214
̱	-11215
ג	-11216
ח	-11217
נ	-11218
ص	-11219
প	-11220
ম	-11221
ắ	-11222
 	-11223
ィ	-11224
バ	-11225
二	-11226
史	-11227
生	-11228
花	-11229
의	-11230
®	-11231
Ì	-11232
Ľ	-11233
ņ	-11234
ǔ	-11235
ّ	-11236
ک	-11237
भ	-11238
ত	-11239
த	-11240
ு	-11241
ვ	-11242
ნ	-11243
ứ	-11244
っ	-11245
ウ	-11246
古	-11247
太	-11248
村	-11249
Ι	-11250
կ	-11251
տ	-11252
श	-11253
ष	-11254
য	-11255
ย	-11256
้	-11257
ṉ	-11258
‒	-11259
が	-11260
じ	-11261
を	-11262
キ	-11263
フ	-11264
ミ	-11265
Ò	-11266
ļ	-11267
ї	-11268
ْ	-11269
ॐ	-11270
ต	-11271
ẹ	-11272
そ	-11273
に	-11274
エ	-11275
グ	-11276
光	-11277
拉	-11278
曲	-11279
野	-11280
고	-11281
Х	-11282
ק	-11283
أ	-11284
ப	-11285
თ	-11286
ῶ	-11287
₱	-11288
№	-11289
、	-11290
く	-11291
ま	-11292
コ	-11293
チ	-11294
メ	-11295
劉	-11296
四	-11297
水	-11298
신	-11299
지	-11300
한	-11301
ű	-11302
ɲ	-11303
Я	-11304
پ	-11305
บ	-11306
พ	-11307
ἰ	-11308
ὁ	-11309
お	-11310
れ	-11311
ナ	-11312
不	-11313
出	-11314
利	-11315
周	-11316
戦	-11317
會	-11318
石	-11319
第	-11320
語	-11321
軍	-11322
部	-11323
马	-11324
원	-11325
¾	-11326
Ж	-11327
յ	-11328
צ	-11329
ى	-11330
ण	-11331
ু	-11332
จ	-11333
ะ	-11334
ี	-11335
დ	-11336
ḷ	-11337
ὰ	-11338
™	-11339
∴	-11340
ば	-11341
サ	-11342
ブ	-11343
五	-11344
伝	-11345
台	-11346
學	-11347
家	-11348
張	-11349
書	-11350
木	-11351
波	-11352
镇	-11353
가	-11354
기	-11355
인	-11356
¼	-11357
ɘ	-11358
ɪ	-11359
Ц	-11360
ئ	-11361
়	-11362
ท	-11363
ห	-11364
ุ	-11365
გ	-11366
ḻ	-11367
 	-11368
 	-11369
⣿	-11370
ズ	-11371
ム	-11372
原	-11373
歌	-11374
無	-11375
白	-11376
長	-11377
電	-11378
리	-11379
주	-11380
ט	-11381
غ	-11382
अ	-11383
ტ	-11384
ụ	-11385
ử	-11386
ℓ	-11387
↑	-11388
⋅	-11389
♠	-11390
ぼ	-11391
み	-11392
ょ	-11393
ろ	-11394
乡	-11395
事	-11396
版	-11397
藤	-11398
術	-11399
국	-11400
수	-11401
ġ	-11402
ʃ	-11403
̲	-11404
Η	-11405
ַ	-11406
ன	-11407
ನ	-11408
ರ	-11409
ἱ	-11410
ὲ	-11411
 	-11412
」	-11413
え	-11414
ど	-11415
ケ	-11416
パ	-11417
ボ	-11418
ョ	-11419
你	-11420
加	-11421
島	-11422
市	-11423
方	-11424
時	-11425
有	-11426
楊	-11427
河	-11428
皇	-11429
遠	-11430
青	-11431
馬	-11432
도	-11433
산	-11434
조	-11435
ʰ	-11436
Ρ	-11437
ס	-11438
گ	-11439
ా	-11440
ದ	-11441
ಿ	-11442
್	-11443
ด	-11444
デ	-11445
ニ	-11446
京	-11447
元	-11448
字	-11449
拔	-11450
民	-11451
江	-11452
縣	-11453
那	-11454
선	-11455
）	-11456
̃	-11457
լ	-11458
ּ	-11459
ُ	-11460
چ	-11461
ब	-11462
স	-11463
ী	-11464
ல	-11465
ക	-11466
ര	-11467
ค	-11468
แ	-11469
์	-11470
ṟ	-11471
Ṣ	-11472
ề	-11473
ủ	-11474
☆	-11475
「	-11476
だ	-11477
井	-11478
伊	-11479
信	-11480
孫	-11481
容	-11482
少	-11483
川	-11484
忠	-11485
最	-11486
永	-11487
特	-11488
色	-11489
説	-11490
論	-11491
谷	-11492
集	-11493
연	-11494
후	-11495
（	-11496
ĩ	-11497
ǒ	-11498
ɾ	-11499
Β	-11500
ध	-11501
শ	-11502
ச	-11503
வ	-11504
ை	-11505
ు	-11506
Ἰ	-11507
←	-11508
≠	-11509
★	-11510
『	-11511
』	-11512
つ	-11513
ふ	-11514
オ	-11515
モ	-11516
亚	-11517
代	-11518
全	-11519
八	-11520
唱	-11521
夫	-11522
拓	-11523
界	-11524
館	-11525
구	-11526
동	-11527
보	-11528
장	-11529
정	-11530
화	-11531
¶	-11532
ɣ	-11533
̥	-11534
Э	-11535
գ	-11536
է	-11537
ट	-11538
ட	-11539
ാ	-11540
්	-11541
ช	-11542
ป	-11543
ศ	-11544
ὴ	-11545
●	-11546
〈	-11547
〉	-11548
ゴ	-11549
ュ	-11550
主	-11551
前	-11552
化	-11553
口	-11554
合	-11555
師	-11556
慕	-11557
成	-11558
月	-11559
松	-11560
梅	-11561
流	-11562
清	-11563
玉	-11564
科	-11565
米	-11566
羅	-11567
者	-11568
英	-11569
記	-11570
路	-11571
郎	-11572
院	-11573
音	-11574
麻	-11575
공	-11576
군	-11577
전	-11578
！	-11579
È	-11580
ƒ	-11581
Υ	-11582
ћ	-11583
ў	-11584
ѣ	-11585
մ	-11586
ִ	-11587
গ	-11588
ర	-11589
ಂ	-11590
ಾ	-11591
်	-11592
კ	-11593
ይ	-11594
ḏ	-11595
※	-11596
↓	-11597
≡	-11598
す	-11599
で	-11600
よ	-11601
ァ	-11602
ダ	-11603
プ	-11604
伯	-11605
傑	-11606
内	-11607
可	-11608
尼	-11609
思	-11610
情	-11611
拳	-11612
教	-11613
正	-11614
物	-11615
福	-11616
見	-11617
韓	-11618
무	-11619
비	-11620
상	-11621
아	-11622
자	-11623
¹	-11624
ĭ	-11625
Ķ	-11626
জ	-11627
ள	-11628
ಗ	-11629
ം	-11630
ത	-11631
ി	-11632
ำ	-11633
း	-11634
Ṭ	-11635
ἔ	-11636
ῆ	-11637
‿	-11638
♦	-11639
〜	-11640
め	-11641
ゆ	-11642
侯	-11643
協	-11644
名	-11645
奇	-11646
奥	-11647
如	-11648
宋	-11649
宗	-11650
將	-11651
岡	-11652
帝	-11653
悟	-11654
春	-11655
景	-11656
朝	-11657
来	-11658
格	-11659
理	-11660
竹	-11661
都	-11662
경	-11663
다	-11664
어	-11665
영	-11666
Ħ	-11667
ŷ	-11668
ɫ	-11669
ʷ	-11670
̓	-11671
Ј	-11672
Ա	-11673
Ս	-11674
ָ	-11675
আ	-11676
ড	-11677
ய	-11678
త	-11679
్	-11680
ು	-11681
മ	-11682
ා	-11683
ხ	-11684
ừ	-11685
ữ	-11686
ỳ	-11687
Ἀ	-11688
ἡ	-11689
‌	-11690
‎	-11691
‚	-11692
↔	-11693
け	-11694
ワ	-11695
下	-11696
吉	-11697
后	-11698
命	-11699
嘉	-11700
固	-11701
巴	-11702
摩	-11703
是	-11704
未	-11705
泰	-11706
渠	-11707
源	-11708
祖	-11709
秀	-11710
義	-11711
聖	-11712
良	-11713
視	-11714
言	-11715
郡	-11716
門	-11717
陳	-11718
頭	-11719
魔	-11720
강	-11721
로	-11722
오	-11723
제	-11724
평	-11725
Ġ	-11726
Ī	-11727
Ψ	-11728
Ю	-11729
զ	-11730
ղ	-11731
պ	-11732
ց	-11733
ہ	-11734
आ	-11735
ख	-11736
ञ	-11737
ू	-11738
ট	-11739
হ	-11740
ਾ	-11741
ே	-11742
സ	-11743
ර	-11744
ར	-11745
ც	-11746
ể	-11747
ἶ	-11748
ὅ	-11749
ὺ	-11750
ῇ	-11751
わ	-11752
ェ	-11753
ォ	-11754
ガ	-11755
ノ	-11756
ヴ	-11757
作	-11758
保	-11759
兵	-11760
別	-11761
劇	-11762
卡	-11763
君	-11764
場	-11765
夜	-11766
康	-11767
式	-11768
強	-11769
次	-11770
沙	-11771
津	-11772
灣	-11773
等	-11774
納	-11775
罗	-11776
興	-11777
赤	-11778
通	-11779
進	-11780
重	-11781
陵	-11782
隆	-11783
雲	-11784
飛	-11785
랑	-11786
릉	-11787
성	-11788
여	-11789
학	-11790
ĝ	-11791
ķ	-11792
Ū	-11793
І	-11794
љ	-11795
Գ	-11796
բ	-11797
թ	-11798
ְ	-11799
ء	-11800
ܘ	-11801
ܝ	-11802
ষ	-11803
ਰ	-11804
ண	-11805
ந	-11806
ವ	-11807
പ	-11808
വ	-11809
ു	-11810
ම	-11811
མ	-11812
ས	-11813
ུ	-11814
ḳ	-11815
ῷ	-11816
₂	-11817
♥	-11818
せ	-11819
へ	-11820
ビ	-11821
ベ	-11822
丘	-11823
久	-11824
亞	-11825
仙	-11826
佛	-11827
傳	-11828
六	-11829
列	-11830
华	-11831
司	-11832
品	-11833
在	-11834
夏	-11835
夢	-11836
好	-11837
室	-11838
寺	-11839
徐	-11840
恋	-11841
提	-11842
昭	-11843
桓	-11844
業	-11845
死	-11846
沮	-11847
治	-11848
球	-11849
相	-11850
知	-11851
穆	-11852
組	-11853
經	-11854
老	-11855
與	-11856
茶	-11857
萬	-11858
薩	-11859
開	-11860
間	-11861
雅	-11862
韩	-11863
馮	-11864
騎	-11865
금	-11866
나	-11867
스	-11868
안	-11869
예	-11870
우	-11871
하	-11872
－	-11873
｢	-11874
｣	-11875
Ô	-11876
ċ	-11877
į	-11878
ʉ	-11879
ʒ	-11880
̌	-11881
̪	-11882
Χ	-11883
њ	-11884
ז	-11885
ذ	-11886
ە	-11887
ः	-11888
থ	-11889
ற	-11890
మ	-11891
න	-11892
ව	-11893
ญ	-11894
ེ	-11895
င	-11896
ፈ	-11897
ᑲ	-11898
ᒃ	-11899
ᖅ	-11900
ẽ	-11901
ự	-11902
⇒	-11903
ぎ	-11904
び	-11905
ギ	-11906
ソ	-11907
ハ	-11908
东	-11909
也	-11910
亭	-11911
党	-11912
兰	-11913
军	-11914
分	-11915
動	-11916
区	-11917
友	-11918
同	-11919
吳	-11920
囉	-11921
園	-11922
堂	-11923
威	-11924
宇	-11925
宮	-11926
常	-11927
廣	-11928
建	-11929
影	-11930
後	-11931
御	-11932
志	-11933
念	-11934
恩	-11935
感	-11936
戸	-11937
房	-11938
折	-11939
昌	-11940
森	-11941
沈	-11942
泉	-11943
洋	-11944
演	-11945
漢	-11946
爾	-11947
真	-11948
研	-11949
究	-11950
紅	-11951
線	-11952
翼	-11953
苏	-11954
若	-11955
菩	-11956
街	-11957
連	-11958
鄭	-11959
隊	-11960
雷	-11961
風	-11962
麗	-11963
당	-11964
마	-11965
문	-11966
소	-11967
야	-11968
월	-11969
유	-11970
종	-11971
진	-11972
･	-11973
ª	-11974
÷	-11975
ģ	-11976
Œ	-11977
ǧ	-11978
ɖ	-11979
ʸ	-11980
ʽ	-11981
ˌ	-11982
̄	-11983
Й	-11984
Հ	-11985
Մ	-11986
դ	-11987
հ	-11988
ճ	-11989
ք	-11990
آ	-11991
ث	-11992
ض	-11993
ٹ	-11994
ृ	-11995
চ	-11996
ழ	-11997
ి	-11998
ಬ	-11999
ೆ	-12000
ന	-12001
റ	-12002
ල	-12003
ธ	-12004
ི	-12005
ფ	-12006
ქ	-12007
შ	-12008
ለ	-12009
ᛁ	-12010
Ḫ	-12011
ṯ	-12012
ẫ	-12013
ằ	-12014
ỹ	-12015
ἄ	-12016
ὄ	-12017
⁄	-12018
∆	-12019
ず	-12020
ほ	-12021
む	-12022
ヒ	-12023
ポ	-12024
九	-12025
了	-12026
千	-12027
参	-12028
回	-12029
土	-12030
基	-12031
報	-12032
墨	-12033
奈	-12034
妃	-12035
婆	-12036
官	-12037
定	-12038
富	-12039
尚	-12040
岩	-12041
崔	-12042
工	-12043
布	-12044
府	-12045
所	-12046
支	-12047
放	-12048
政	-12049
斗	-12050
族	-12051
暴	-12052
曼	-12053
杜	-12054
母	-12055
狗	-12056
狼	-12057
瑞	-12058
男	-12059
画	-12060
経	-12061
編	-12062
胡	-12063
苗	-12064
蘇	-12065
蘭	-12066
虎	-12067
衛	-12068
謝	-12069
護	-12070
資	-12071
赫	-12072
超	-12073
雄	-12074
雪	-12075
面	-12076
首	-12077
香	-12078
駅	-12079
黄	-12080
검	-12081
곡	-12082
궁	-12083
남	-12084
노	-12085
박	-12086
법	-12087
서	-12088
세	-12089
시	-12090
운	-12091
윤	-12092
일	-12093
호	-12094
회	-12095
Ď	-12096
ƛ	-12097
ˑ	-12098
Έ	-12099
қ	-12100
ռ	-12101
ֹ	-12102
ـ	-12103
ܐ	-12104
उ	-12105
ए	-12106
ड	-12107
फ	-12108
উ	-12109
ো	-12110
ਤ	-12111
இ	-12112
ం	-12113
క	-12114
ಪ	-12115
ಮ	-12116
യ	-12117
ല	-12118
ය	-12119
ู	-12120
ိ	-12121
ძ	-12122
ា	-12123
ẩ	-12124
ổ	-12125
ὑ	-12126
‍	-12127
₴	-12128
∂	-12129
∗	-12130
─	-12131
▪	-12132
ゅ	-12133
ペ	-12134
七	-12135
乾	-12136
亜	-12137
仁	-12138
使	-12139
先	-12140
典	-12141
凡	-12142
初	-12143
力	-12144
勝	-12145
印	-12146
及	-12147
塔	-12148
壽	-12149
多	-12150
姆	-12151
屋	-12152
展	-12153
左	-12154
度	-12155
彭	-12156
得	-12157
意	-12158
慶	-12159
敦	-12160
普	-12161
智	-12162
樹	-12163
気	-12164
決	-12165
済	-12166
湯	-12167
熊	-12168
玄	-12169
略	-12170
登	-12171
百	-12172
盧	-12173
私	-12174
秦	-12175
精	-12176
肥	-12177
臣	-12178
荒	-12179
藝	-12180
諸	-12181
議	-12182
象	-12183
貞	-12184
貴	-12185
趙	-12186
达	-12187
造	-12188
選	-12189
銀	-12190
黨	-12191
계	-12192
두	-12193
라	-12194
명	-12195
복	-12196
봉	-12197
식	-12198
에	-12199
역	-12200
요	-12201
위	-12202
창	-12203
파	-12204
현	-12205
환	-12206
훈	-12207
­	-12208
Ê	-12209
Ő	-12210
ɯ	-12211
ʎ	-12212
ʲ	-12213
ʹ	-12214
̂	-12215
̈	-12216
͟	-12217
͡	-12218
Ά	-12219
є	-12220
Բ	-12221
Պ	-12222
օ	-12223
ֶ	-12224
ׁ	-12225
ך	-12226
ں	-12227
ܪ	-12228
छ	-12229
थ	-12230
।	-12231
ঁ	-12232
ই	-12233
ভ	-12234
ৃ	-12235
ਲ	-12236
ક	-12237
ద	-12238
న	-12239
ప	-12240
య	-12241
ತ	-12242
ಳ	-12243
ട	-12244
ണ	-12245
േ	-12246
ත	-12247
හ	-12248
ි	-12249
ු	-12250
ේ	-12251
ข	-12252
โ	-12253
າ	-12254
ག	-12255
လ	-12256
ု	-12257
ေ	-12258
ን	-12259
ጥ	-12260
ᓐ	-12261
᛬	-12262
្	-12263
ḇ	-12264
ṁ	-12265
ẓ	-12266
ᾳ	-12267
ῃ	-12268
⅓	-12269
⅔	-12270
∪	-12271
│	-12272
☸	-12273
♣	-12274
ざ	-12275
ね	-12276
ひ	-12277
ゲ	-12278
ツ	-12279
ピ	-12280
ヤ	-12281
乙	-12282
今	-12283
仔	-12284
休	-12285
侍	-12286
俊	-12287
修	-12288
兒	-12289
共	-12290
助	-12291
博	-12292
卢	-12293
右	-12294
告	-12295
唐	-12296
团	-12297
坂	-12298
墓	-12299
奴	-12300
娘	-12301
孔	-12302
守	-12303
宙	-12304
宣	-12305
宫	-12306
密	-12307
寧	-12308
寶	-12309
崎	-12310
希	-12311
庄	-12312
延	-12313
弗	-12314
戰	-12315
朗	-12316
朱	-12317
桂	-12318
桑	-12319
楽	-12320
橋	-12321
沢	-12322
洞	-12323
活	-12324
浦	-12325
渡	-12326
港	-12327
湖	-12328
溪	-12329
烈	-12330
爪	-12331
爱	-12332
犬	-12333
獣	-12334
珍	-12335
現	-12336
用	-12337
由	-12338
申	-12339
皮	-12340
盛	-12341
紙	-12342
聽	-12343
能	-12344
自	-12345
艾	-12346
莫	-12347
蕭	-12348
解	-12349
警	-12350
诺	-12351
賢	-12352
賽	-12353
車	-12354
近	-12355
速	-12356
達	-12357
邑	-12358
鉄	-12359
长	-12360
陀	-12361
雀	-12362
頓	-12363
餅	-12364
鮮	-12365
鳳	-12366
麟	-12367
黃	-12368
龙	-12369
개	-12370
과	-12371
관	-12372
려	-12373
삼	-12374
송	-12375
순	-12376
양	-12377
용	-12378
은	-12379
을	-12380
중	-12381
최	-12382
해	-12383
＋	-12384
Ē	-12385
ŝ	-12386
Ţ	-12387
Ə	-12388
ǃ	-12389
ɐ	-12390
ɡ	-12391
ʁ	-12392
ʈ	-12393
ʋ	-12394
Ζ	-12395
ϊ	-12396
ϕ	-12397
ѧ	-12398
Ե	-12399
Կ	-12400
Ն	-12401
Ք	-12402
խ	-12403
վ	-12404
،	-12405
إ	-12406
ٰ	-12407
ٱ	-12408
ڠ	-12409
ڤ	-12410
ई	-12411
ै	-12412
ছ	-12413
ੁ	-12414
ூ	-12415
ெ	-12416
ொ	-12417
ల	-12418
శ	-12419
ಜ	-12420
ಶ	-12421
ಹ	-12422
ද	-12423
ณ	-12424
฿	-12425
ไ	-12426
ະ	-12427
།	-12428
ཏ	-12429
པ	-12430
ཡ	-12431
ཱ	-12432
ာ	-12433
ት	-12434
ᐅ	-12435
ᐱ	-12436
ᒥ	-12437
ᓯ	-12438
ḭ	-12439
Ḳ	-12440
ặ	-12441
ỉ	-12442
ὖ	-12443
ᾶ	-12444
 	-12445
‖	-12446
›	-12447
√	-12448
♯	-12449
ぁ	-12450
ぬ	-12451
ぶ	-12452
ザ	-12453
セ	-12454
ヌ	-12455
ネ	-12456
ホ	-12457
丁	-12458
万	-12459
丙	-12460
乃	-12461
乐	-12462
于	-12463
仮	-12464
仲	-12465
件	-12466
份	-12467
伏	-12468
伴	-12469
來	-12470
儀	-12471
兩	-12472
关	-12473
刀	-12474
判	-12475
制	-12476
动	-12477
務	-12478
勤	-12479
午	-12480
卜	-12481
參	-12482
叱	-12483
向	-12484
哈	-12485
哲	-12486
善	-12487
嚴	-12488
外	-12489
夷	-12490
奏	-12491
姑	-12492
姚	-12493
孟	-12494
封	-12495
尉	-12496
尊	-12497
居	-12498
崇	-12499
巻	-12500
幫	-12501
干	-12502
幽	-12503
底	-12504
庭	-12505
弁	-12506
引	-12507
形	-12508
彦	-12509
彩	-12510
待	-12511
微	-12512
怒	-12513
怪	-12514
悲	-12515
想	-12516
承	-12517
技	-12518
操	-12519
敬	-12520
无	-12521
早	-12522
望	-12523
杨	-12524
柔	-12525
柳	-12526
株	-12527
案	-12528
機	-12529
段	-12530
氣	-12531
池	-12532
洪	-12533
浅	-12534
浩	-12535
溶	-12536
潮	-12537
点	-12538
照	-12539
燕	-12540
牙	-12541
牛	-12542
甚	-12543
町	-12544
異	-12545
當	-12546
直	-12547
筑	-12548
篇	-12549
築	-12550
簡	-12551
系	-12552
紀	-12553
素	-12554
緑	-12555
翰	-12556
聯	-12557
腕	-12558
舞	-12559
芸	-12560
草	-12561
菲	-12562
親	-12563
誰	-12564
諾	-12565
謀	-12566
賀	-12567
送	-12568
運	-12569
過	-12570
郁	-12571
酒	-12572
釋	-12573
钟	-12574
關	-12575
门	-12576
限	-12577
非	-12578
革	-12579
順	-12580
饰	-12581
거	-12582
게	-12583
골	-12584
광	-12585
교	-12586
날	-12587
년	-12588
는	-12589
단	-12590
드	-12591
물	-12592
병	-12593
석	-12594
심	-12595
와	-12596
임	-12597
저	-12598
철	-12599
희	-12600
𐌰	-12601
Ã	-12602
Ļ	-12603
ŕ	-12604
Ť	-12605
ɒ	-12606
ɭ	-12607
ɽ	-12608
ʟ	-12609
ˠ	-12610
˧	-12611
˨	-12612
̞	-12613
Ό	-12614
Ξ	-12615
Թ	-12616
Լ	-12617
Յ	-12618
Վ	-12619
ظ	-12620
ٌ	-12621
ژ	-12622
ۭ	-12623
ܵ	-12624
़	-12625
ौ	-12626
খ	-12627
ঙ	-12628
ূ	-12629
ਿ	-12630
ા	-12631
ି	-12632
ங	-12633
ஞ	-12634
భ	-12635
వ	-12636
స	-12637
ీ	-12638
ಭ	-12639
അ	-12640
ഴ	-12641
ഷ	-12642
ീ	-12643
ප	-12644
ස	-12645
ภ	-12646
ອ	-12647
ན	-12648
བ	-12649
ོ	-12650
ྲ	-12651
က	-12652
မ	-12653
ွ	-12654
წ	-12655
ሰ	-12656
ስ	-12657
በ	-12658
ኣ	-12659
ᐊ	-12660
ᐦ	-12661
ᒪ	-12662
ᓇ	-12663
ᛚ	-12664
ᴇ	-12665
Ḍ	-12666
ḗ	-12667
ḵ	-12668
ṓ	-12669
Ẹ	-12670
ỏ	-12671
Ợ	-12672
Ἄ	-12673
Ἐ	-12674
Ὀ	-12675
Ὁ	-12676
ῳ	-12677
‛	-12678
‧	-12679
‰	-12680
₤	-12681
₩	-12682
∅	-12683
∧	-12684
◌	-12685
ⵔ	-12686
〒	-12687
げ	-12688
丸	-12689
丹	-12690
乌	-12691
书	-12692
乱	-12693
争	-12694
些	-12695
什	-12696
介	-12697
以	-12698
佐	-12699
体	-12700
何	-12701
佳	-12702
們	-12703
倩	-12704
偉	-12705
僧	-12706
優	-12707
入	-12708
其	-12709
再	-12710
别	-12711
到	-12712
刺	-12713
剑	-12714
劍	-12715
功	-12716
勇	-12717
勒	-12718
勳	-12719
半	-12720
双	-12721
反	-12722
受	-12723
吒	-12724
呂	-12725
商	-12726
団	-12727
图	-12728
场	-12729
堀	-12730
境	-12731
声	-12732
宝	-12733
客	-12734
宿	-12735
対	-12736
将	-12737
尾	-12738
峰	-12739
已	-12740
师	-12741
幸	-12742
幻	-12743
店	-12744
弘	-12745
张	-12746
弼	-12747
復	-12748
快	-12749
性	-12750
恭	-12751
悉	-12752
慧	-12753
憶	-12754
戀	-12755
战	-12756
抱	-12757
抽	-12758
持	-12759
挫	-12760
故	-12761
散	-12762
於	-12763
晚	-12764
曾	-12765
朵	-12766
桃	-12767
梁	-12768
楚	-12769
構	-12770
樓	-12771
步	-12772
比	-12773
汗	-12774
沒	-12775
洛	-12776
浪	-12777
淡	-12778
溫	-12779
激	-12780
火	-12781
灵	-12782
為	-12783
然	-12784
煌	-12785
父	-12786
状	-12787
狂	-12788
狐	-12789
猫	-12790
獎	-12791
班	-12792
琉	-12793
瑜	-12794
環	-12795
瓊	-12796
瓦	-12797
甘	-12798
皆	-12799
目	-12800
眼	-12801
礼	-12802
禮	-12803
秋	-12804
秘	-12805
程	-12806
章	-12807
筆	-12808
範	-12809
红	-12810
纳	-12811
考	-12812
耿	-12813
職	-12814
股	-12815
腹	-12816
臧	-12817
荊	-12818
萨	-12819
落	-12820
著	-12821
葛	-12822
藏	-12823
虹	-12824
蛙	-12825
被	-12826
要	-12827
計	-12828
討	-12829
許	-12830
訶	-12831
詩	-12832
詳	-12833
說	-12834
講	-12835
譜	-12836
记	-12837
起	-12838
越	-12839
足	-12840
輔	-12841
輪	-12842
迪	-12843
遺	-12844
郭	-12845
鈴	-12846
錄	-12847
鍾	-12848
鐘	-12849
鐵	-12850
队	-12851
陆	-12852
陣	-12853
陰	-12854
難	-12855
雨	-12856
霊	-12857
靈	-12858
靖	-12859
风	-12860
骨	-12861
魂	-12862
鷹	-12863
鹿	-12864
黑	-12865
黒	-12866
ꜥ	-12867
감	-12868
권	-12869
그	-12870
근	-12871
루	-12872
림	-12873
모	-12874
미	-12875
방	-12876
북	-12877
분	-12878
속	-12879
숙	-12880
십	-12881
암	-12882
죽	-12883
청	-12884
추	-12885
충	-12886
치	-12887
포	-12888
풍	-12889
프	-12890
피	-12891
홍	-12892
황	-12893
︠	-12894
︡	-12895
／	-12896
＝	-12897
	-12898
¨	-12899
Õ	-12900
Ĉ	-12901
ĕ	-12902
Ğ	-12903
ĺ	-12904
Ź	-12905
Ơ	-12906
ǀ	-12907
ǚ	-12908
ǣ	-12909
ǰ	-12910
ȕ	-12911
ɳ	-12912
ɵ	-12913
ɹ	-12914
ʌ	-12915
ʚ	-12916
˚	-12917
˹	-12918
˺	-12919
̅	-12920
̯	-12921
̰	-12922
Ы	-12923
ө	-12924
Խ	-12925
Շ	-12926
Տ	-12927
ը	-12928
ծ	-12929
շ	-12930
չ	-12931
ֲ	-12932
ֵ	-12933
״	-12934
ھ	-12935
ۇ	-12936
ے	-12937
ܢ	-12938
ܣ	-12939
ܬ	-12940
ު	-12941
ँ	-12942
इ	-12943
ङ	-12944
४	-12945
६	-12946
ণ	-12947
ৌ	-12948
ৎ	-12949
ਕ	-12950
ਦ	-12951
ਨ	-12952
ਪ	-12953
ਮ	-12954
ਸ	-12955
ੀ	-12956
ੋ	-12957
ੰ	-12958
ੱ	-12959
ન	-12960
ર	-12961
ી	-12962
ତ	-12963
ନ	-12964
அ	-12965
ீ	-12966
ோ	-12967
జ	-12968
ట	-12969
ణ	-12970
ూ	-12971
ే	-12972
ಯ	-12973
ಲ	-12974
ೇ	-12975
ೈ	-12976
ച	-12977
ഹ	-12978
െ	-12979
ක	-12980
ැ	-12981
ො	-12982
ฉ	-12983
ซ	-12984
ถ	-12985
ษ	-12986
ນ	-12987
ປ	-12988
ཆ	-12989
ད	-12990
ཙ	-12991
ྦ	-12992
ྨ	-12993
ပ	-12994
္	-12995
ყ	-12996
ክ	-12997
ፍ	-12998
ᑐ	-12999
ᑕ	-13000
ᑭ	-13001
ᛋ	-13002
ᛏ	-13003
ក	-13004
រ	-13005
ស	-13006
Ḷ	-13007
ṙ	-13008
Ṛ	-13009
Ẓ	-13010
ở	-13011
ἠ	-13012
Ἡ	-13013
ἴ	-13014
ὼ	-13015
᾿	-13016
ῥ	-13017
Ῥ	-13018
⁠	-13019
⁺	-13020
₫	-13021
℗	-13022
ℤ	-13023
⅝	-13024
∀	-13025
∃	-13026
∨	-13027
∩	-13028
⊗	-13029
└	-13030
├	-13031
▲	-13032
▽	-13033
♡	-13034
♪	-13035
✝	-13036
➤	-13037
ぐ	-13038
ぢ	-13039
べ	-13040
ゐ	-13041
ゼ	-13042
ゾ	-13043
ヅ	-13044
ヘ	-13045
ユ	-13046
与	-13047
並	-13048
个	-13049
乞	-13050
云	-13051
交	-13052
亨	-13053
令	-13054
伦	-13055
位	-13056
佑	-13057
侗	-13058
供	-13059
依	-13060
俺	-13061
個	-13062
健	-13063
備	-13064
傣	-13065
僑	-13066
児	-13067
內	-13068
冀	-13069
刃	-13070
剣	-13071
勾	-13072
區	-13073
単	-13074
县	-13075
发	-13076
吴	-13077
呼	-13078
哥	-13079
哩	-13080
唎	-13081
問	-13082
啜	-13083
喬	-13084
器	-13085
嚧	-13086
因	-13087
圓	-13088
圭	-13089
坎	-13090
坪	-13091
型	-13092
埃	-13093
堅	-13094
堆	-13095
塞	-13096
塩	-13097
売	-13098
奉	-13099
奎	-13100
奕	-13101
奚	-13102
妹	-13103
妻	-13104
始	-13105
姓	-13106
姫	-13107
娛	-13108
婦	-13109
媽	-13110
嫁	-13111
孝	-13112
孤	-13113
宏	-13114
宜	-13115
実	-13116
宴	-13117
射	-13118
尋	-13119
對	-13120
尤	-13121
就	-13122
尹	-13123
屁	-13124
屠	-13125
岛	-13126
峡	-13127
嶺	-13128
席	-13129
帰	-13130
帶	-13131
庙	-13132
座	-13133
廟	-13134
廷	-13135
开	-13136
彌	-13137
归	-13138
彥	-13139
徒	-13140
從	-13141
徳	-13142
忘	-13143
怕	-13144
总	-13145
恐	-13146
息	-13147
恵	-13148
悪	-13149
惠	-13150
懷	-13151
或	-13152
戲	-13153
戴	-13154
打	-13155
扶	-13156
掖	-13157
掛	-13158
探	-13159
改	-13160
敏	-13161
救	-13162
敷	-13163
斎	-13164
料	-13165
旅	-13166
晨	-13167
晴	-13168
曉	-13169
期	-13170
术	-13171
杉	-13172
果	-13173
枝	-13174
查	-13175
样	-13176
桜	-13177
梵	-13178
棒	-13179
極	-13180
様	-13181
樋	-13182
模	-13183
横	-13184
歐	-13185
歩	-13186
歷	-13187
歸	-13188
殷	-13189
殿	-13190
沖	-13191
油	-13192
洲	-13193
深	-13194
淵	-13195
湾	-13196
濤	-13197
瀬	-13198
烏	-13199
熙	-13200
片	-13201
獨	-13202
琴	-13203
瓜	-13204
產	-13205
甲	-13206
电	-13207
疆	-13208
發	-13209
盟	-13210
盲	-13211
眷	-13212
督	-13213
破	-13214
祝	-13215
祥	-13216
移	-13217
種	-13218
竜	-13219
笑	-13220
管	-13221
篤	-13222
糖	-13223
約	-13224
純	-13225
紫	-13226
紹	-13227
総	-13228
緣	-13229
織	-13230
维	-13231
習	-13232
翔	-13233
而	-13234
聚	-13235
聲	-13236
肇	-13237
育	-13238
腰	-13239
臨	-13240
至	-13241
致	-13242
舍	-13243
舟	-13244
般	-13245
芝	-13246
茂	-13247
茄	-13248
茲	-13249
莉	-13250
菜	-13251
葉	-13252
葵	-13253
蔡	-13254
蔣	-13255
藍	-13256
號	-13257
衍	-13258
裕	-13259
裡	-13260
製	-13261
規	-13262
覧	-13263
觀	-13264
视	-13265
角	-13266
訓	-13267
話	-13268
謎	-13269
譚	-13270
论	-13271
话	-13272
说	-13273
豐	-13274
豪	-13275
跡	-13276
蹟	-13277
載	-13278
輯	-13279
车	-13280
辰	-13281
辺	-13282
追	-13283
逆	-13284
选	-13285
這	-13286
遇	-13287
遊	-13288
遲	-13289
邊	-13290
郑	-13291
鄧	-13292
配	-13293
酷	-13294
醯	-13295
錢	-13296
閭	-13297
闇	-13298
陈	-13299
陶	-13300
陸	-13301
際	-13302
雙	-13303
雞	-13304
零	-13305
静	-13306
響	-13307
類	-13308
飯	-13309
餐	-13310
餘	-13311
馗	-13312
魏	-13313
鸡	-13314
麵	-13315
鼓	-13316
齊	-13317
ꞌ	-13318
ꦸ	-13319
건	-13320
결	-13321
귀	-13322
규	-13323
내	-13324
녀	-13325
누	-13326
님	-13327
달	-13328
덕	-13329
데	-13330
된	-13331
래	-13332
령	-13333
록	-13334
류	-13335
르	-13336
만	-13337
말	-13338
매	-13339
민	-13340
배	-13341
백	-13342
본	-13343
빈	-13344
살	-13345
색	-13346
술	-13347
슬	-13348
승	-13349
언	-13350
울	-13351
으	-13352
익	-13353
입	-13354
적	-13355
즈	-13356
집	-13357
차	-13358
찬	-13359
층	-13360
태	-13361
토	-13362
판	-13363
편	-13364
협	-13365
형	-13366
흥	-13367
２	-13368
；	-13369
？	-13370
｜	-13371
𐌹	-13372
𐌿	-13373
𝛽	-13374
	-13375
¬	-13376
Ë	-13377
Ï	-13378
Ð	-13379
Û	-13380
Ý	-13381
Ă	-13382
Ċ	-13383
Ň	-13384
ŗ	-13385
Ɓ	-13386
ƈ	-13387
Ǝ	-13388
Ɛ	-13389
Ɵ	-13390
Ư	-13391
ǁ	-13392
Ǧ	-13393
Ǵ	-13394
ȟ	-13395
ȧ	-13396
Ʉ	-13397
ɓ	-13398
ɕ	-13399
ɗ	-13400
ɢ	-13401
ɤ	-13402
ɬ	-13403
ɸ	-13404
ʤ	-13405
ʱ	-13406
ˀ	-13407
ˤ	-13408
̇	-13409
̜	-13410
̣	-13411
̤	-13412
̧	-13413
΄	-13414
Ъ	-13415
Ѣ	-13416
ѹ	-13417
Җ	-13418
җ	-13419
ҳ	-13420
Ҹ	-13421
ҹ	-13422
ә	-13423
ӯ	-13424
Դ	-13425
Զ	-13426
Ի	-13427
Ղ	-13428
Ո	-13429
Ց	-13430
ժ	-13431
ձ	-13432
֞	-13433
ׂ	-13434
׳	-13435
؛	-13436
ٓ	-13437
ٽ	-13438
ڈ	-13439
۝	-13440
۟	-13441
۲	-13442
ܒ	-13443
ܗ	-13444
ܚ	-13445
ܲ	-13446
ܼ	-13447
ހ	-13448
ވ	-13449
ަ	-13450
औ	-13451
घ	-13452
झ	-13453
ठ	-13454
ॉ	-13455
०	-13456
८	-13457
অ	-13458
ও	-13459
ঝ	-13460
ঞ	-13461
ধ	-13462
ফ	-13463
ৰ	-13464
ਧ	-13465
ਬ	-13466
ੇ	-13467
ં	-13468
એ	-13469
પ	-13470
ળ	-13471
િ	-13472
ો	-13473
્	-13474
ଦ	-13475
ବ	-13476
ର	-13477
ା	-13478
େ	-13479
ஆ	-13480
ஊ	-13481
థ	-13482
ధ	-13483
బ	-13484
ో	-13485
ಅ	-13486
ಆ	-13487
ಕ	-13488
ಟ	-13489
ಡ	-13490
ಥ	-13491
ಸ	-13492
ೋ	-13493
ങ	-13494
ജ	-13495
ദ	-13496
ള	-13497
ശ	-13498
ൽ	-13499
ඇ	-13500
බ	-13501
ෆ	-13502
ී	-13503
ฮ	-13504
ื	-13505
ใ	-13506
็	-13507
ກ	-13508
ດ	-13509
ຕ	-13510
ຖ	-13511
ບ	-13512
ພ	-13513
ວ	-13514
ັ	-13515
ິ	-13516
ເ	-13517
ཀ	-13518
ཛ	-13519
ལ	-13520
ཤ	-13521
ཧ	-13522
ཾ	-13523
ྟ	-13524
ྩ	-13525
ྱ	-13526
ဆ	-13527
ဝ	-13528
ါ	-13529
ြ	-13530
ზ	-13531
პ	-13532
ჩ	-13533
ჭ	-13534
ሊ	-13535
ል	-13536
መ	-13537
ሩ	-13538
ር	-13539
ቱ	-13540
ቲ	-13541
ና	-13542
ኪ	-13543
ኸ	-13544
ው	-13545
ዕ	-13546
ዳ	-13547
ድ	-13548
ጢ	-13549
Ꭹ	-13550
Ꮇ	-13551
Ꮪ	-13552
ᐃ	-13553
ᐏ	-13554
ᐚ	-13555
ᐤ	-13556
ᐸ	-13557
ᑖ	-13558
ᑯ	-13559
ᑿ	-13560
ᒋ	-13561
ᒫ	-13562
ᓂ	-13563
ᓅ	-13564
ᓖ	-13565
ᔪ	-13566
ᚢ	-13567
ᚩ	-13568
ᚿ	-13569
ត	-13570
ម	-13571
វ	-13572
ᥕ	-13573
ᥛ	-13574
ᥧ	-13575
ᥰ	-13576
ᥱ	-13577
ḑ	-13578
ḡ	-13579
ẁ	-13580
ẖ	-13581
Ấ	-13582
Ế	-13583
Ề	-13584
Ị	-13585
ỡ	-13586
Ủ	-13587
ỷ	-13588
ἢ	-13589
ἷ	-13590
ὕ	-13591
Ὑ	-13592
ὡ	-13593
ὥ	-13594
​	-13595
‟	-13596
‹	-13597
⁓	-13598
⁴	-13599
₁	-13600
⅞	-13601
∇	-13602
∉	-13603
∠	-13604
∼	-13605
≪	-13606
≫	-13607
⊅	-13608
⍳	-13609
▼	-13610
○	-13611
⚐	-13612
❤	-13613
⟶	-13614
ⵉ	-13615
々	-13616
ぇ	-13617
づ	-13618
ぱ	-13619
゚	-13620
゜	-13621
ㄢ	-13622
ㅐ	-13623
ㅒ	-13624
ㅔ	-13625
ㅖ	-13626
ㅘ	-13627
ㅙ	-13628
ㅚ	-13629
ㅝ	-13630
ㅞ	-13631
ㅟ	-13632
ㅢ	-13633
ㇽ	-13634
㖿	-13635
丈	-13636
且	-13637
临	-13638
丽	-13639
乔	-13640
亀	-13641
亂	-13642
予	-13643
亥	-13644
亦	-13645
亮	-13646
仇	-13647
仓	-13648
仕	-13649
任	-13650
仿	-13651
传	-13652
住	-13653
佘	-13654
余	-13655
佩	-13656
侂	-13657
価	-13658
係	-13659
俗	-13660
俣	-13661
俱	-13662
倆	-13663
倉	-13664
倫	-13665
像	-13666
僕	-13667
儒	-13668
兗	-13669
兮	-13670
兴	-13671
兹	-13672
冒	-13673
写	-13674
冠	-13675
冨	-13676
冯	-13677
冲	-13678
冷	-13679
凝	-13680
凤	-13681
凰	-13682
凱	-13683
刑	-13684
刻	-13685
則	-13686
剛	-13687
剧	-13688
労	-13689
勁	-13690
勞	-13691
勰	-13692
勿	-13693
卑	-13694
卫	-13695
卷	-13696
厚	-13697
叔	-13698
取	-13699
变	-13700
叶	-13701
各	-13702
吐	-13703
呉	-13704
哇	-13705
喜	-13706
喝	-13707
喰	-13708
図	-13709
圖	-13710
坊	-13711
坐	-13712
坡	-13713
坦	-13714
執	-13715
堡	-13716
塘	-13717
壇	-13718
壮	-13719
头	-13720
夹	-13721
契	-13722
奧	-13723
妄	-13724
妈	-13725
姜	-13726
娃	-13727
娱	-13728
娼	-13729
婁	-13730
婚	-13731
媛	-13732
孕	-13733
存	-13734
宁	-13735
完	-13736
宛	-13737
寒	-13738
寓	-13739
寛	-13740
察	-13741
导	-13742
専	-13743
導	-13744
尻	-13745
屈	-13746
岑	-13747
峨	-13748
峯	-13749
嵐	-13750
嵩	-13751
巖	-13752
巡	-13753
差	-13754
帥	-13755
并	-13756
幹	-13757
幾	-13758
広	-13759
序	-13760
庚	-13761
庫	-13762
廉	-13763
廬	-13764
当	-13765
彪	-13766
彼	-13767
征	-13768
很	-13769
徹	-13770
忍	-13771
怎	-13772
怛	-13773
怜	-13774
恒	-13775
慈	-13776
慌	-13777
慘	-13778
懌	-13779
戎	-13780
戯	-13781
扉	-13782
才	-13783
扣	-13784
批	-13785
把	-13786
投	-13787
抗	-13788
抜	-13789
披	-13790
拖	-13791
捕	-13792
授	-13793
推	-13794
擁	-13795
攀	-13796
收	-13797
敵	-13798
斐	-13799
斬	-13800
断	-13801
旗	-13802
昇	-13803
易	-13804
昧	-13805
晶	-13806
暂	-13807
暗	-13808
暦	-13809
曹	-13810
朋	-13811
服	-13812
材	-13813
条	-13814
杯	-13815
杰	-13816
杵	-13817
析	-13818
査	-13819
档	-13820
桥	-13821
條	-13822
梦	-13823
梯	-13824
椽	-13825
楷	-13826
楼	-13827
榆	-13828
榜	-13829
榮	-13830
樣	-13831
橫	-13832
檔	-13833
欄	-13834
權	-13835
欣	-13836
歴	-13837
残	-13838
殺	-13839
毛	-13840
汉	-13841
汝	-13842
汽	-13843
沛	-13844
泣	-13845
泥	-13846
泳	-13847
派	-13848
济	-13849
浜	-13850
消	-13851
涼	-13852
淳	-13853
温	-13854
渴	-13855
渾	-13856
湘	-13857
滑	-13858
滿	-13859
漁	-13860
潘	-13861
澄	-13862
澤	-13863
瀛	-13864
焯	-13865
燃	-13866
燒	-13867
爭	-13868
爸	-13869
牢	-13870
牧	-13871
猩	-13872
獻	-13873
玩	-13874
珠	-13875
璃	-13876
璝	-13877
甜	-13878
産	-13879
畢	-13880
畫	-13881
疏	-13882
痕	-13883
益	-13884
盤	-13885
看	-13886
眠	-13887
睡	-13888
矢	-13889
砦	-13890
硕	-13891
祐	-13892
禧	-13893
禿	-13894
秉	-13895
种	-13896
稱	-13897
穂	-13898
童	-13899
節	-13900
篠	-13901
籃	-13902
級	-13903
索	-13904
終	-13905
結	-13906
絞	-13907
統	-13908
絲	-13909
絵	-13910
継	-13911
維	-13912
網	-13913
縄	-13914
繩	-13915
纂	-13916
續	-13917
结	-13918
绝	-13919
绪	-13920
缅	-13921
罪	-13922
署	-13923
羊	-13924
群	-13925
耶	-13926
聰	-13927
肉	-13928
肏	-13929
胄	-13930
胆	-13931
胜	-13932
胭	-13933
脂	-13934
膳	-13935
臭	-13936
臺	-13937
舊	-13938
舌	-13939
舎	-13940
舜	-13941
航	-13942
船	-13943
艇	-13944
艺	-13945
芍	-13946
芙	-13947
芬	-13948
芳	-13949
苻	-13950
茅	-13951
荣	-13952
莎	-13953
菱	-13954
萍	-13955
萧	-13956
董	-13957
葬	-13958
蒙	-13959
蓋	-13960
蔑	-13961
蔵	-13962
薄	-13963
薛	-13964
藥	-13965
藩	-13966
蘿	-13967
虜	-13968
虞	-13969
蛮	-13970
蜜	-13971
蝦	-13972
蠕	-13973
蠻	-13974
衆	-13975
衡	-13976
袁	-13977
袈	-13978
補	-13979
裟	-13980
褚	-13981
规	-13982
觚	-13983
評	-13984
認	-13985
誕	-13986
誠	-13987
誨	-13988
談	-13989
請	-13990
謙	-13991
讀	-13992
變	-13993
诗	-13994
豆	-13995
豫	-13996
貓	-13997
負	-13998
財	-13999
貧	-14000
費	-14001
賓	-14002
走	-14003
跋	-14004
跳	-14005
蹤	-14006
身	-14007
軒	-14008
輝	-14009
辛	-14010
辞	-14011
返	-14012
这	-14013
进	-14014
迦	-14015
迷	-14016
适	-14017
逃	-14018
逸	-14019
遗	-14020
遵	-14021
避	-14022
還	-14023
邦	-14024
邨	-14025
邽	-14026
郤	-14027
郷	-14028
鄉	-14029
采	-14030
釜	-14031
鎖	-14032
鎮	-14033
鏘	-14034
鏡	-14035
鑑	-14036
閃	-14037
閩	-14038
閻	-14039
闻	-14040
阪	-14041
阮	-14042
防	-14043
附	-14044
降	-14045
隠	-14046
雍	-14047
離	-14048
霓	-14049
露	-14050
霹	-14051
靂	-14052
靜	-14053
韋	-14054
須	-14055
預	-14056
領	-14057
題	-14058
額	-14059
願	-14060
顺	-14061
顿	-14062
颺	-14063
飞	-14064
餓	-14065
饭	-14066
饼	-14067
馱	-14068
駆	-14069
髮	-14070
魚	-14071
鳥	-14072
鴨	-14073
鶴	-14074
麒	-14075
麥	-14076
黎	-14077
黔	-14078
黛	-14079
點	-14080
齐	-14081
齡	-14082
ꜜ	-14083
ꦏ	-14084
ꦠ	-14085
ꦤ	-14086
꧀	-14087
ꮣ	-14088
간	-14089
걸	-14090
굴	-14091
길	-14092
낙	-14093
난	-14094
너	-14095
놀	-14096
니	-14097
더	-14098
독	-14099
들	-14100
떡	-14101
량	-14102
러	-14103
름	-14104
립	-14105
망	-14106
맨	-14107
머	-14108
메	-14109
믄	-14110
반	-14111
벽	-14112
별	-14113
볼	-14114
생	-14115
손	-14116
악	-14117
앙	-14118
애	-14119
업	-14120
열	-14121
옛	-14122
옥	-14123
육	-14124
음	-14125
응	-14126
좌	-14127
증	-14128
직	-14129
질	-14130
참	-14131
책	-14132
체	-14133
촌	-14134
총	-14135
축	-14136
쾌	-14137
타	-14138
탄	-14139
탑	-14140
택	-14141
터	-14142
통	-14143
투	-14144
트	-14145
팔	-14146
패	-14147
합	-14148
행	-14149
향	-14150
허	-14151
혁	-14152
혼	-14153
ﯽ	-14154
ﯾ	-14155
ﺍ	-14156
ﻳ	-14157
．	-14158
�	-14159
𐋏	-14160
𐌻	-14161
𐌼	-14162
𐌽	-14163
𐍃	-14164
𐭠	-14165
𐭭	-14166
𐭮	-14167
𝗮	-14168
𝗹	-14169
	-14170
	-14171
	-14172
¤	-14173
¸	-14174
ĉ	-14175
Ė	-14176
Ę	-14177
Ĭ	-14178
Į	-14179
Ĵ	-14180
Ĺ	-14181
Ŀ	-14182
ŀ	-14183
Ņ	-14184
Ŋ	-14185
Ŧ	-14186
ſ	-14187
ƀ	-14188
Ƈ	-14189
Ɨ	-14190
Ƙ	-14191
ƙ	-14192
ƚ	-14193
Ƨ	-14194
ƫ	-14195
Ʊ	-14196
ƴ	-14197
Ƶ	-14198
ƻ	-14199
Ƽ	-14200
Ǎ	-14201
ǜ	-14202
ǟ	-14203
Ǥ	-14204
Ǫ	-14205
ǵ	-14206
ȝ	-14207
ȴ	-14208
ȸ	-14209
Ȼ	-14210
ȼ	-14211
Ƚ	-14212
Ɂ	-14213
Ɉ	-14214
ɜ	-14215
ɟ	-14216
ɰ	-14217
ɴ	-14218
ɺ	-14219
ʍ	-14220
ʗ	-14221
ʙ	-14222
ʡ	-14223
ʢ	-14224
ʧ	-14225
ˆ	-14226
˘	-14227
˛	-14228
˥	-14229
˩	-14230
˭	-14231
̆	-14232
̝	-14233
̨	-14234
̩	-14235
̵	-14236
̶	-14237
̽	-14238
͵	-14239
Ή	-14240
ΐ	-14241
Ϸ	-14242
Є	-14243
Љ	-14244
Њ	-14245
Ћ	-14246
Џ	-14247
Щ	-14248
Ь	-14249
ђ	-14250
ѓ	-14251
ѡ	-14252
Ѷ	-14253
Ѽ	-14254
Ѿ	-14255
Ҍ	-14256
Ғ	-14257
ғ	-14258
Қ	-14259
Ҟ	-14260
ҡ	-14261
ҫ	-14262
ҭ	-14263
Ұ	-14264
Ҳ	-14265
ӑ	-14266
ӡ	-14267
ӣ	-14268
Ө	-14269
Ը	-14270
Ժ	-14271
Ծ	-14272
Ճ	-14273
Ջ	-14274
Ռ	-14275
Ւ	-14276
Փ	-14277
Օ	-14278
ջ	-14279
ֆ	-14280
֑	-14281
ֻ	-14282
ף	-14283
ץ	-14284
ؤ	-14285
٠	-14286
١	-14287
٢	-14288
٣	-14289
٤	-14290
٥	-14291
٦	-14292
٧	-14293
٨	-14294
٩	-14295
ڄ	-14296
ڌ	-14297
ړ	-14298
ڭ	-14299
ڳ	-14300
ۆ	-14301
ۈ	-14302
ۗ	-14303
۰	-14304
۱	-14305
۳	-14306
۷	-14307
۹	-14308
ܕ	-14309
ܟ	-14310
ܡ	-14311
ܥ	-14312
ܩ	-14313
ܰ	-14314
ܺ	-14315
ܿ	-14316
݂	-14317
݇	-14318
ݜ	-14319
ݭ	-14320
ݰ	-14321
ނ	-14322
ރ	-14323
ދ	-14324
ސ	-14325
ީ	-14326
ޫ	-14327
ް	-14328
ߏ	-14329
ߖ	-14330
ߝ	-14331
ߤ	-14332
ߥ	-14333
ऋ	-14334
ऌ	-14335
ओ	-14336
ढ	-14337
ळ	-14338
ऽ	-14339
ॢ	-14340
॥	-14341
१	-14342
३	-14343
५	-14344
ঈ	-14345
ঠ	-14346
ৈ	-14347
২	-14348
ৱ	-14349
ਂ	-14350
ਏ	-14351
ਗ	-14352
ਘ	-14353
ਚ	-14354
ਜ	-14355
ਡ	-14356
ਢ	-14357
ਣ	-14358
ਵ	-14359
ਹ	-14360
੍	-14361
ખ	-14362
ચ	-14363
છ	-14364
ટ	-14365
ડ	-14366
મ	-14367
વ	-14368
શ	-14369
ુ	-14370
ે	-14371
ଁ	-14372
ଆ	-14373
କ	-14374
ଗ	-14375
ପ	-14376
ଫ	-14377
ମ	-14378
ସ	-14379
ହ	-14380
ୀ	-14381
ୁ	-14382
ୃ	-14383
ୋ	-14384
உ	-14385
எ	-14386
ஸ	-14387
గ	-14388
ఘ	-14389
చ	-14390
డ	-14391
ష	-14392
హ	-14393
ె	-14394
ై	-14395
ಇ	-14396
ಋ	-14397
ಖ	-14398
ಚ	-14399
ೂ	-14400
ആ	-14401
ഇ	-14402
ഒ	-14403
ഗ	-14404
ഘ	-14405
ധ	-14406
ബ	-14407
ഭ	-14408
ൊ	-14409
ോ	-14410
ൻ	-14411
ං	-14412
ග	-14413
ණ	-14414
ඹ	-14415
ශ	-14416
ෝ	-14417
ฆ	-14418
ฒ	-14419
ผ	-14420
ฝ	-14421
ฟ	-14422
ึ	-14423
๊	-14424
ງ	-14425
ຊ	-14426
ທ	-14427
ລ	-14428
ສ	-14429
ໄ	-14430
້	-14431
༔	-14432
ང	-14433
ཅ	-14434
ཉ	-14435
ཊ	-14436
ཐ	-14437
ཕ	-14438
ཚ	-14439
འ	-14440
ྂ	-14441
ྃ	-14442
ྒ	-14443
ྗ	-14444
ྙ	-14445
ྡ	-14446
ྪ	-14447
ྭ	-14448
ྷ	-14449
ခ	-14450
စ	-14451
ဇ	-14452
ဋ	-14453
ဌ	-14454
တ	-14455
ဒ	-14456
ဓ	-14457
ဗ	-14458
ရ	-14459
သ	-14460
ဟ	-14461
အ	-14462
့	-14463
ၢ	-14464
ႆ	-14465
ႇ	-14466
ჟ	-14467
ჯ	-14468
ჰ	-14469
ሉ	-14470
ላ	-14471
ሞ	-14472
ረ	-14473
ራ	-14474
ቃ	-14475
ብ	-14476
ታ	-14477
እ	-14478
ኩ	-14479
ኹ	-14480
ወ	-14481
ዉ	-14482
ዋ	-14483
ዘ	-14484
ዚ	-14485
ዝ	-14486
የ	-14487
ዩ	-14488
ዱ	-14489
ጎ	-14490
ጻ	-14491
Ꭰ	-14492
Ꭳ	-14493
Ꭸ	-14494
Ꮳ	-14495
Ꮷ	-14496
Ꮻ	-14497
Ᏹ	-14498
ᏸ	-14499
ᐘ	-14500
ᐙ	-14501
ᐣ	-14502
ᐯ	-14503
ᑎ	-14504
ᑦ	-14505
ᑳ	-14506
ᒐ	-14507
ᒡ	-14508
ᒦ	-14509
ᒧ	-14510
ᓄ	-14511
ᓕ	-14512
ᓛ	-14513
ᓪ	-14514
ᓵ	-14515
ᔅ	-14516
ᔑ	-14517
ᔥ	-14518
ᔭ	-14519
ᕆ	-14520
ᕋ	-14521
ᕐ	-14522
ᕕ	-14523
ᖑ	-14524
ᗸ	-14525
ᙵ	-14526
ᚦ	-14527
ᚴ	-14528
ᚹ	-14529
ᚾ	-14530
ᛃ	-14531
ᛒ	-14532
ᛖ	-14533
ᛘ	-14534
ᛞ	-14535
ᛥ	-14536
ដ	-14537
ថ	-14538
ទ	-14539
ន	-14540
ផ	-14541
ព	-14542
ភ	-14543
ល	-14544
ហ	-14545
ុ	-14546
េ	-14547
ំ	-14548
ះ	-14549
៉	-14550
ᥒ	-14551
ᥔ	-14552
ᥘ	-14553
ᥣ	-14554
ᥤ	-14555
ᥫ	-14556
ᥬ	-14557
ᦙ	-14558
ᦲ	-14559
ᦵ	-14560
ᧂ	-14561
ᴠ	-14562
ᵐ	-14563
ᵽ	-14564
ᶀ	-14565
ᶁ	-14566
ᶂ	-14567
ᶃ	-14568
ᶄ	-14569
ᶅ	-14570
ᶆ	-14571
ᶇ	-14572
ᶈ	-14573
ᶉ	-14574
ᶊ	-14575
ᶋ	-14576
ᶌ	-14577
ᶍ	-14578
ᶎ	-14579
ᶐ	-14580
ᶪ	-14581
ᶵ	-14582
ḃ	-14583
Ḉ	-14584
ḉ	-14585
Ḵ	-14586
Ḹ	-14587
ḹ	-14588
Ḻ	-14589
Ḽ	-14590
ḽ	-14591
ṝ	-14592
Ṡ	-14593
ṫ	-14594
Ả	-14595
Ầ	-14596
ẵ	-14597
ẻ	-14598
Ồ	-14599
Ớ	-14600
Ở	-14601
Ứ	-14602
Ỳ	-14603
ἁ	-14604
ἂ	-14605
ἅ	-14606
ἑ	-14607
ἓ	-14608
Ἔ	-14609
Ἕ	-14610
ἤ	-14611
ἦ	-14612
ἳ	-14613
Ἱ	-14614
Ἵ	-14615
ὀ	-14616
ὔ	-14617
ὠ	-14618
Ὥ	-14619
ᾠ	-14620
ᾷ	-14621
᾽	-14622
ῑ	-14623
ῴ	-14624
‣	-14625
 	-14626
⁰	-14627
⁵	-14628
⁶	-14629
ⁿ	-14630
₃	-14631
₇	-14632
₡	-14633
₨	-14634
₽	-14635
ℒ	-14636
ℵ	-14637
⅁	-14638
⅛	-14639
Ↄ	-14640
ↄ	-14641
⇌	-14642
⇔	-14643
∊	-14644
∘	-14645
≅	-14646
⊆	-14647
⊕	-14648
⊙	-14649
⊢	-14650
⌂	-14651
⍾	-14652
⑦	-14653
Ⓣ	-14654
┃	-14655
┼	-14656
■	-14657
□	-14658
◇	-14659
◊	-14660
◎	-14661
☧	-14662
☺	-14663
♀	-14664
♂	-14665
♫	-14666
⚨	-14667
⚭	-14668
⠙	-14669
⠟	-14670
⢁	-14671
⢿	-14672
⣌	-14673
⣦	-14674
⣴	-14675
⣷	-14676
⣾	-14677
Ⱡ	-14678
ⱡ	-14679
Ᵽ	-14680
ⴰ	-14681
ⴱ	-14682
ⴷ	-14683
ⴻ	-14684
ⴽ	-14685
ⵃ	-14686
ⵍ	-14687
ⵏ	-14688
ⵙ	-14689
ⵛ	-14690
ⵣ	-14691
ご	-14692
ぜ	-14693
ゥ	-14694
ヂ	-14695
ヨ	-14696
ヲ	-14697
ヶ	-14698
ㄌ	-14699
ㄥ	-14700
ㄨ	-14701
ㄲ	-14702
ㄸ	-14703
ㅃ	-14704
ㅆ	-14705
ㅉ	-14706
ㅏ	-14707
ㅑ	-14708
ㅓ	-14709
ㅕ	-14710
ㅗ	-14711
ㅛ	-14712
ㅜ	-14713
ㅠ	-14714
ㅡ	-14715
ㅣ	-14716
ㇴ	-14717
䝼	-14718
专	-14719
丕	-14720
丞	-14721
两	-14722
严	-14723
丧	-14724
丫	-14725
丰	-14726
为	-14727
乍	-14728
乏	-14729
乗	-14730
乘	-14731
习	-14732
乳	-14733
互	-14734
亡	-14735
产	-14736
亶	-14737
仂	-14738
仆	-14739
仏	-14740
他	-14741
付	-14742
仪	-14743
们	-14744
仰	-14745
伉	-14746
伍	-14747
伐	-14748
伙	-14749
伶	-14750
伸	-14751
似	-14752
伽	-14753
低	-14754
佟	-14755
佤	-14756
佯	-14757
侃	-14758
例	-14759
侦	-14760
侶	-14761
促	-14762
俄	-14763
俑	-14764
俘	-14765
俞	-14766
俟	-14767
俠	-14768
俵	-14769
俾	-14770
倍	-14771
倒	-14772
倖	-14773
候	-14774
借	-14775
値	-14776
倦	-14777
偏	-14778
側	-14779
偵	-14780
偶	-14781
偷	-14782
傅	-14783
傷	-14784
僉	-14785
働	-14786
僖	-14787
價	-14788
儂	-14789
儼	-14790
儿	-14791
充	-14792
兆	-14793
兎	-14794
具	-14795
兼	-14796
円	-14797
农	-14798
决	-14799
冴	-14800
净	-14801
凄	-14802
凌	-14803
凖	-14804
击	-14805
切	-14806
刊	-14807
刘	-14808
创	-14809
券	-14810
剃	-14811
剝	-14812
剪	-14813
副	-14814
創	-14815
劈	-14816
努	-14817
劫	-14818
劭	-14819
勃	-14820
勉	-14821
匀	-14822
包	-14823
匙	-14824
匡	-14825
匹	-14826
医	-14827
协	-14828
卐	-14829
卓	-14830
占	-14831
危	-14832
厂	-14833
厄	-14834
厅	-14835
去	-14836
叢	-14837
只	-14838
叫	-14839
叭	-14840
号	-14841
叻	-14842
吃	-14843
吗	-14844
否	-14845
听	-14846
吹	-14847
吽	-14848
吾	-14849
员	-14850
味	-14851
呷	-14852
咒	-14853
咖	-14854
咸	-14855
哆	-14856
員	-14857
唄	-14858
唆	-14859
唯	-14860
唵	-14861
唾	-14862
啓	-14863
啟	-14864
喀	-14865
喇	-14866
喊	-14867
喧	-14868
喩	-14869
單	-14870
営	-14871
嗎	-14872
嗢	-14873
嗣	-14874
嘩	-14875
嚕	-14876
嚼	-14877
囍	-14878
囚	-14879
园	-14880
圍	-14881
圏	-14882
圣	-14883
圳	-14884
圾	-14885
垃	-14886
垣	-14887
垵	-14888
埋	-14889
域	-14890
埥	-14891
埵	-14892
堃	-14893
堤	-14894
堯	-14895
塗	-14896
塚	-14897
塤	-14898
塵	-14899
墀	-14900
增	-14901
墮	-14902
壊	-14903
壓	-14904
壯	-14905
壺	-14906
変	-14907
复	-14908
央	-14909
失	-14910
夸	-14911
奖	-14912
套	-14913
奪	-14914
妊	-14915
妥	-14916
妮	-14917
姐	-14918
姒	-14919
姦	-14920
姬	-14921
娅	-14922
娑	-14923
娟	-14924
娠	-14925
娥	-14926
娩	-14927
婉	-14928
婢	-14929
婧	-14930
嫡	-14931
嫫	-14932
孙	-14933
孚	-14934
季	-14935
宅	-14936
宰	-14937
害	-14938
宾	-14939
寀	-14940
寂	-14941
寄	-14942
寇	-14943
寥	-14944
寨	-14945
寵	-14946
寸	-14947
对	-14948
專	-14949
尺	-14950
局	-14951
屄	-14952
屍	-14953
層	-14954
履	-14955
屯	-14956
屹	-14957
岭	-14958
岱	-14959
岳	-14960
岷	-14961
岸	-14962
峴	-14963
峽	-14964
崀	-14965
崗	-14966
崙	-14967
崧	-14968
嵋	-14969
嵻	-14970
嶝	-14971
巌	-14972
巒	-14973
巣	-14974
巨	-14975
巫	-14976
己	-14977
巽	-14978
帕	-14979
幕	-14980
幡	-14981
广	-14982
庇	-14983
应	-14984
庵	-14985
廓	-14986
廠	-14987
廻	-14988
弉	-14989
弓	-14990
弥	-14991
弦	-14992
强	-14993
彎	-14994
彝	-14995
彧	-14996
彷	-14997
役	-14998
彿	-14999
律	-15000
必	-15001
忏	-15002
忽	-15003
怀	-15004
怖	-15005
怡	-15006
怯	-15007
恆	-15008
恢	-15009
恪	-15010
恰	-15011
悅	-15012
悌	-15013
悔	-15014
您	-15015
悫	-15016
惊	-15017
惑	-15018
惟	-15019
惡	-15020
愁	-15021
愚	-15022
慄	-15023
慣	-15024
慵	-15025
憂	-15026
憚	-15027
憩	-15028
憲	-15029
憾	-15030
應	-15031
懐	-15032
懶	-15033
懸	-15034
戈	-15035
戊	-15036
戏	-15037
戒	-15038
托	-15039
扬	-15040
扭	-15041
扮	-15042
找	-15043
报	-15044
拍	-15045
拯	-15046
拱	-15047
指	-15048
挑	-15049
挥	-15050
振	-15051
捉	-15052
捍	-15053
捜	-15054
捩	-15055
据	-15056
捷	-15057
掃	-15058
掄	-15059
掌	-15060
接	-15061
揖	-15062
揚	-15063
揭	-15064
揮	-15065
搶	-15066
摄	-15067
摸	-15068
摹	-15069
撃	-15070
撒	-15071
撕	-15072
撥	-15073
撰	-15074
擇	-15075
擊	-15076
擒	-15077
擠	-15078
擲	-15079
攜	-15080
攝	-15081
攻	-15082
效	-15083
敌	-15084
数	-15085
整	-15086
斉	-15087
斑	-15088
斜	-15089
斟	-15090
斡	-15091
斤	-15092
施	-15093
旃	-15094
旦	-15095
旭	-15096
旿	-15097
昂	-15098
昆	-15099
昊	-15100
昏	-15101
昔	-15102
昕	-15103
映	-15104
晃	-15105
晉	-15106
晋	-15107
晦	-15108
晷	-15109
暢	-15110
暮	-15111
曆	-15112
曇	-15113
曖	-15114
曙	-15115
曜	-15116
曝	-15117
曠	-15118
曦	-15119
曬	-15120
更	-15121
末	-15122
机	-15123
杀	-15124
权	-15125
杖	-15126
束	-15127
极	-15128
枹	-15129
柏	-15130
染	-15131
柘	-15132
柱	-15133
栄	-15134
栈	-15135
栖	-15136
栗	-15137
核	-15138
根	-15139
栻	-15140
桐	-15141
桔	-15142
桦	-15143
桩	-15144
梟	-15145
梨	-15146
棄	-15147
椋	-15148
植	-15149
検	-15150
楞	-15151
楠	-15152
榎	-15153
槍	-15154
槐	-15155
標	-15156
樞	-15157
橄	-15158
檀	-15159
檢	-15160
櫓	-15161
櫻	-15162
欖	-15163
欽	-15164
歡	-15165
止	-15166
此	-15167
歪	-15168
歲	-15169
歳	-15170
歼	-15171
毅	-15172
毎	-15173
每	-15174
毕	-15175
毗	-15176
毘	-15177
氈	-15178
氷	-15179
汤	-15180
汪	-15181
沂	-15182
沃	-15183
沅	-15184
沉	-15185
没	-15186
沼	-15187
沽	-15188
沾	-15189
況	-15190
泊	-15191
泐	-15192
泡	-15193
注	-15194
泾	-15195
洁	-15196
洗	-15197
测	-15198
浮	-15199
浴	-15200
涉	-15201
涛	-15202
涞	-15203
涪	-15204
液	-15205
淄	-15206
淑	-15207
淨	-15208
淺	-15209
添	-15210
渋	-15211
渦	-15212
湃	-15213
湝	-15214
湣	-15215
湧	-15216
満	-15217
溝	-15218
溯	-15219
滇	-15220
滎	-15221
滕	-15222
满	-15223
滩	-15224
漫	-15225
漿	-15226
潔	-15227
潛	-15228
潤	-15229
潭	-15230
澈	-15231
澥	-15232
澧	-15233
澳	-15234
濂	-15235
濕	-15236
濟	-15237
濡	-15238
濺	-15239
濾	-15240
瀏	-15241
灯	-15242
灰	-15243
災	-15244
炤	-15245
烙	-15246
焂	-15247
焙	-15248
焜	-15249
焦	-15250
焰	-15251
煙	-15252
煥	-15253
煩	-15254
熒	-15255
熱	-15256
燈	-15257
燿	-15258
爵	-15259
牟	-15260
牵	-15261
犍	-15262
犯	-15263
独	-15264
狸	-15265
狽	-15266
猶	-15267
獅	-15268
獖	-15269
现	-15270
玲	-15271
珊	-15272
珣	-15273
琛	-15274
琪	-15275
琬	-15276
琳	-15277
瑕	-15278
瑠	-15279
瑩	-15280
璋	-15281
璟	-15282
甌	-15283
甫	-15284
畈	-15285
畑	-15286
留	-15287
番	-15288
畲	-15289
畵	-15290
疋	-15291
疾	-15292
痛	-15293
痣	-15294
発	-15295
皎	-15296
皙	-15297
皤	-15298
盃	-15299
监	-15300
盖	-15301
盜	-15302
監	-15303
県	-15304
眞	-15305
眭	-15306
着	-15307
睽	-15308
睿	-15309
瞳	-15310
瞻	-15311
瞽	-15312
砕	-15313
硏	-15314
碑	-15315
碟	-15316
碣	-15317
碧	-15318
碼	-15319
磁	-15320
磨	-15321
磼	-15322
礁	-15323
礎	-15324
祁	-15325
祈	-15326
祠	-15327
票	-15328
祭	-15329
祺	-15330
禁	-15331
禪	-15332
秃	-15333
秩	-15334
税	-15335
稔	-15336
稽	-15337
稿	-15338
積	-15339
穎	-15340
穗	-15341
穴	-15342
穿	-15343
突	-15344
窓	-15345
窮	-15346
站	-15347
競	-15348
笒	-15349
笨	-15350
笹	-15351
筋	-15352
筍	-15353
答	-15354
策	-15355
简	-15356
箱	-15357
簫	-15358
簾	-15359
簿	-15360
籍	-15361
籠	-15362
类	-15363
粉	-15364
糸	-15365
紇	-15366
紋	-15367
紐	-15368
紘	-15369
細	-15370
給	-15371
続	-15372
綜	-15373
綝	-15374
綵	-15375
綺	-15376
綽	-15377
綿	-15378
緄	-15379
緘	-15380
緯	-15381
緱	-15382
練	-15383
縱	-15384
總	-15385
績	-15386
繇	-15387
繚	-15388
繰	-15389
繼	-15390
约	-15391
级	-15392
纪	-15393
纲	-15394
练	-15395
细	-15396
经	-15397
续	-15398
绿	-15399
缘	-15400
缽	-15401
网	-15402
罕	-15403
置	-15404
羚	-15405
羨	-15406
羲	-15407
羽	-15408
翁	-15409
翅	-15410
翊	-15411
翠	-15412
翳	-15413
耕	-15414
耳	-15415
聊	-15416
职	-15417
聞	-15418
聪	-15419
聴	-15420
肅	-15421
肖	-15422
背	-15423
胎	-15424
胤	-15425
脚	-15426
脩	-15427
脳	-15428
腊	-15429
腋	-15430
腐	-15431
腦	-15432
膀	-15433
膽	-15434
臓	-15435
臘	-15436
臻	-15437
舉	-15438
舒	-15439
舘	-15440
舰	-15441
节	-15442
芎	-15443
芦	-15444
芹	-15445
芽	-15446
苑	-15447
苔	-15448
苜	-15449
苦	-15450
范	-15451
茉	-15452
茜	-15453
茨	-15454
茵	-15455
茹	-15456
荫	-15457
药	-15458
荷	-15459
荼	-15460
莆	-15461
莊	-15462
莲	-15463
菈	-15464
菉	-15465
菊	-15466
菟	-15467
萊	-15468
营	-15469
萩	-15470
葦	-15471
葱	-15472
葺	-15473
蒂	-15474
蒲	-15475
蓄	-15476
蓟	-15477
蓮	-15478
蓿	-15479
蕃	-15480
蕊	-15481
蕖	-15482
蕙	-15483
蕣	-15484
蕩	-15485
薇	-15486
薫	-15487
藻	-15488
蘆	-15489
虔	-15490
虚	-15491
蚊	-15492
蚕	-15493
蛉	-15494
蛋	-15495
蛟	-15496
蜀	-15497
蜻	-15498
融	-15499
蟹	-15500
蟻	-15501
蠡	-15502
蠱	-15503
血	-15504
衝	-15505
衣	-15506
表	-15507
裁	-15508
装	-15509
裏	-15510
裝	-15511
襲	-15512
覽	-15513
见	-15514
观	-15515
觉	-15516
觐	-15517
觸	-15518
訂	-15519
訊	-15520
訟	-15521
訢	-15522
設	-15523
証	-15524
詁	-15525
詞	-15526
詠	-15527
詡	-15528
試	-15529
詹	-15530
誉	-15531
誓	-15532
読	-15533
課	-15534
誼	-15535
調	-15536
諷	-15537
謹	-15538
證	-15539
識	-15540
譯	-15541
让	-15542
讷	-15543
许	-15544
评	-15545
试	-15546
诚	-15547
请	-15548
读	-15549
课	-15550
谁	-15551
调	-15552
谊	-15553
谟	-15554
谢	-15555
谿	-15556
豊	-15557
豢	-15558
豹	-15559
貝	-15560
貨	-15561
貪	-15562
貿	-15563
賁	-15564
賈	-15565
賊	-15566
賞	-15567
賣	-15568
質	-15569
賴	-15570
贝	-15571
贡	-15572
贤	-15573
费	-15574
贺	-15575
资	-15576
赛	-15577
赞	-15578
趟	-15579
跚	-15580
跟	-15581
践	-15582
蹇	-15583
蹣	-15584
躁	-15585
軌	-15586
軟	-15587
転	-15588
軽	-15589
輕	-15590
輿	-15591
轉	-15592
转	-15593
载	-15594
辑	-15595
辟	-15596
農	-15597
边	-15598
込	-15599
迅	-15600
过	-15601
迈	-15602
迎	-15603
运	-15604
连	-15605
迴	-15606
途	-15607
逢	-15608
週	-15609
違	-15610
遷	-15611
遼	-15612
邉	-15613
邕	-15614
邝	-15615
邢	-15616
邱	-15617
邳	-15618
郊	-15619
郝	-15620
鄄	-15621
鄕	-15622
鄩	-15623
酉	-15624
酥	-15625
醉	-15626
醋	-15627
醫	-15628
释	-15629
釵	-15630
鉴	-15631
銅	-15632
銍	-15633
銘	-15634
銙	-15635
鋒	-15636
鋤	-15637
鋭	-15638
錚	-15639
錣	-15640
錯	-15641
録	-15642
鍛	-15643
鎛	-15644
鏞	-15645
鏤	-15646
鐸	-15647
鑊	-15648
鑒	-15649
鑲	-15650
钗	-15651
钵	-15652
钺	-15653
铁	-15654
铃	-15655
铛	-15656
铭	-15657
锁	-15658
锡	-15659
锻	-15660
镒	-15661
閉	-15662
閒	-15663
関	-15664
閣	-15665
閤	-15666
闘	-15667
闭	-15668
闾	-15669
阁	-15670
阔	-15671
阙	-15672
阜	-15673
阳	-15674
阶	-15675
陝	-15676
陪	-15677
険	-15678
隕	-15679
隣	-15680
隨	-15681
險	-15682
隱	-15683
雑	-15684
雖	-15685
雜	-15686
需	-15687
霆	-15688
震	-15689
霜	-15690
霸	-15691
靚	-15692
靴	-15693
鞍	-15694
鞭	-15695
韃	-15696
韜	-15697
韬	-15698
韵	-15699
頁	-15700
頑	-15701
頻	-15702
頼	-15703
顏	-15704
顧	-15705
顯	-15706
领	-15707
频	-15708
颖	-15709
颗	-15710
题	-15711
飜	-15712
食	-15713
飡	-15714
饑	-15715
馆	-15716
馍	-15717
馥	-15718
馭	-15719
駄	-15720
駒	-15721
駕	-15722
駙	-15723
駛	-15724
駱	-15725
騒	-15726
験	-15727
騙	-15728
驃	-15729
驳	-15730
體	-15731
鬃	-15732
鬱	-15733
鬲	-15734
鬼	-15735
魁	-15736
魯	-15737
鮑	-15738
鯊	-15739
鯨	-15740
鰍	-15741
鰻	-15742
鲁	-15743
鲜	-15744
鳴	-15745
鴻	-15746
鵰	-15747
鶉	-15748
鸣	-15749
鹂	-15750
鹤	-15751
鹹	-15752
鹽	-15753
麼	-15754
黌	-15755
鼎	-15756
鼠	-15757
龜	-15758
ꜣ	-15759
ꝵ	-15760
ꞈ	-15761
Ꞓ	-15762
ꞓ	-15763
ꞔ	-15764
Ꞔ	-15765
ꦁ	-15766
ꦂ	-15767
ꦆ	-15768
ꦧ	-15769
ꦩ	-15770
ꦭ	-15771
ꦮ	-15772
ꦱ	-15773
ꦲ	-15774
ꦶ	-15775
ꦼ	-15776
ꩦ	-15777
ꩩ	-15778
ꩯ	-15779
ꩶ	-15780
ꭹ	-15781
ꮃ	-15782
ꮄ	-15783
ꮅ	-15784
ꮎ	-15785
ꮕ	-15786
각	-15787
갈	-15788
갓	-15789
객	-15790
겨	-15791
겸	-15792
곤	-15793
굼	-15794
급	-15795
긍	-15796
긴	-15797
께	-15798
꼬	-15799
꽹	-15800
꾀	-15801
꿈	-15802
낮	-15803
냉	-15804
눈	-15805
눌	-15806
느	-15807
능	-15808
늬	-15809
담	-15810
닷	-15811
덟	-15812
덴	-15813
돌	-15814
둑	-15815
둘	-15816
뒤	-15817
득	-15818
든	-15819
듭	-15820
등	-15821
디	-15822
딩	-15823
땡	-15824
락	-15825
란	-15826
람	-15827
레	-15828
렘	-15829
렝	-15830
력	-15831
렬	-15832
례	-15833
롭	-15834
롱	-15835
룡	-15836
른	-15837
를	-15838
린	-15839
막	-15840
맹	-15841
면	-15842
멸	-15843
목	-15844
묘	-15845
묵	-15846
뭇	-15847
뭐	-15848
뮤	-15849
믿	-15850
바	-15851
밤	-15852
버	-15853
번	-15854
벌	-15855
범	-15856
벗	-15857
베	-15858
봐	-15859
붕	-15860
브	-15861
블	-15862
빌	-15863
삭	-15864
새	-15865
샐	-15866
샹	-15867
설	-15868
섭	-15869
솔	-15870
쇠	-15871
쇼	-15872
쉿	-15873
슈	-15874
실	-15875
쌤	-15876
써	-15877
압	-15878
앤	-15879
약	-15880
얀	-15881
억	-15882
엔	-15883
엘	-15884
염	-15885
옷	-15886
완	-15887
왜	-15888
외	-15889
욱	-15890
웃	-15891
웅	-15892
읽	-15893
잇	-15894
있	-15895
잊	-15896
잡	-15897
재	-15898
절	-15899
점	-15900
젝	-15901
좀	-15902
좋	-15903
죄	-15904
줄	-15905
줘	-15906
찌	-15907
찾	-15908
척	-15909
첨	-15910
첫	-15911
초	-15912
춘	-15913
친	-15914
칠	-15915
커	-15916
컬	-15917
클	-15918
탕	-15919
틀	-15920
티	-15921
퍼	-15922
푸	-15923
품	-15924
픈	-15925
픔	-15926
필	-15927
핏	-15928
할	-15929
함	-15930
항	-15931
헌	-15932
험	-15933
혈	-15934
혜	-15935
효	-15936
히	-15937
ﬁ	-15938
ﭐ	-15939
︎	-15940
ﺁ	-15941
ﺑ	-15942
ﺕ	-15943
ﺠ	-15944
ﺨ	-15945
ﺩ	-15946
ﺮ	-15947
ﺱ	-15948
ﺵ	-15949
ﺼ	-15950
ﻓ	-15951
ﻫ	-15952
＊	-15953
Ｘ	-15954
𐊡	-15955
𐊤	-15956
𐊦	-15957
𐊶	-15958
𐊺	-15959
𐊼	-15960
𐊽	-15961
𐋀	-15962
𐋁	-15963
𐋂	-15964
𐋃	-15965
𐋇	-15966
𐋈	-15967
𐋊	-15968
𐋋	-15969
𐋌	-15970
𐋍	-15971
𐋎	-15972
𐋐	-15973
𐌱	-15974
𐌴	-15975
𐌸	-15976
𐌺	-15977
𐍆	-15978
𐞛	-15979
𐞜	-15980
𐤀	-15981
𐤉	-15982
𐤋	-15983
𐭣	-15984
𐭦	-15985
𐭩	-15986
𐭪	-15987
𑐖	-15988
𑐥	-15989
𑐩	-15990
𑐴	-15991
𑐵	-15992
𑐸	-15993
𑑂	-15994
𒀭	-15995
𝗕	-15996
𝗖	-15997
𝗲	-15998
